<pad>	0
<s>	0
</s>	0
<unk>	0
ст	-0
ен	-1
ер	-2
in	-3
an	-4
▁п	-5
▁с	-6
on	-7
at	-8
ра	-9
re	-10
ны	-11
▁и	-12
ал	-13
но	-14
▁в	-15
er	-16
ет	-17
▁т	-18
ри	-19
ан	-20
▁м	-21
▁о	-22
ре	-23
▁б	-24
▁s	-25
ел	-26
од	-27
▁к	-28
ени	-29
▁t	-30
ion	-31
ов	-32
▁c	-33
and	-34
▁ж	-35
al	-36
ар	-37
en	-38
ат	-39
на	-40
▁д	-41
ол	-42
ды	-43
▁and	-44
it	-45
es	-46
▁d	-47
▁қ	-48
ing	-49
ді	-50
▁a	-51
не	-52
or	-53
ия	-54
▁m	-55
ро	-56
▁p	-57
▁а	-58
ation	-59
да	-60
ін	-61
st	-62
le	-63
▁in	-64
ем	-65
ic	-66
ес	-67
ки	-68
ын	-69
▁re	-70
за	-71
кт	-72
he	-73
▁П	-74
▁o	-75
ор	-76
▁ре	-77
ық	-78
ных	-79
рим	-80
ar	-81
ro	-82
ей	-83
ас	-84
▁w	-85
▁у	-86
▁по	-87
ение	-88
ни	-89
ност	-90
ани	-91
ка	-92
▁f	-93
▁Прим	-94
ко	-95
де	-96
ce	-97
ми	-98
▁b	-99
▁—	-100
ent	-101
is	-102
ra	-103
ау	-104
от	-105
ци	-106
▁су	-107
lo	-108
▁на	-109
ct	-110
un	-111
▁«	-112
▁об	-113
ыл	-114
сп	-115
ай	-116
ель	-117
il	-118
▁e	-119
ения	-120
ва	-121
▁the	-122
ли	-123
қт	-124
as	-125
мен	-126
▁ст	-127
го	-128
▁э	-129
▁ө	-130
ab	-131
im	-132
ся	-133
ыс	-134
ные	-135
ред	-136
ание	-137
el	-138
ut	-139
ция	-140
▁of	-141
▁при	-142
ed	-143
ge	-144
уч	-145
▁ч	-146
ater	-147
▁мод	-148
ur	-149
еч	-150
ит	-151
ют	-152
▁жә	-153
▁вод	-154
об	-155
ру	-156
▁ра	-157
▁con	-158
▁және	-159
▁l	-160
ров	-161
ri	-162
ғы	-163
ity	-164
ере	-165
ест	-166
▁to	-167
во	-168
гі	-169
▁г	-170
ог	-171
та	-172
ара	-173
▁de	-174
▁за	-175
od	-176
ure	-177
▁co	-178
▁ин	-179
▁про	-180
ность	-181
if	-182
им	-183
ля	-184
ым	-185
ыт	-186
ain	-187
▁st	-188
».	-189
он	-190
ос	-191
▁h	-192
аст	-193
▁не	-194
ment	-195
ечание	-196
▁Пример	-197
▁Примечание	-198
ич	-199
са	-200
▁ф	-201
ine	-202
ист	-203
лер	-204
ной	-205
оль	-206
ch	-207
em	-208
os	-209
ve	-210
лі	-211
то	-212
▁ә	-213
▁от	-214
▁can	-215
et	-216
ле	-217
ющ	-218
▁(	-219
▁ш	-220
ate	-221
▁дан	-222
ім	-223
▁g	-224
ver	-225
алы	-226
дер	-227
ост	-228
ции	-229
▁данных	-230
us	-231
аж	-232
ож	-233
оз	-234
сы	-235
ір	-236
res	-237
еді	-238
▁жа	-239
▁под	-240
ности	-241
▁модел	-242
ин	-243
ter	-244
аль	-245
дың	-246
ков	-247
▁as	-248
▁th	-249
▁бол	-250
ис	-251
ist	-252
али	-253
ект	-254
лар	-255
ход	-256
▁вы	-257
▁из	-258
інде	-259
▁pro	-260
ction	-261
ap	-262
ci	-263
ir	-264
ез	-265
ив	-266
кл	-267
ает	-268
ать	-269
▁su	-270
▁құ	-271
алық	-272
▁обуч	-273
du	-274
ly	-275
аш	-276
ой	-277
ом	-278
▁Д	-279
ның	-280
тер	-281
▁та	-282
id	-283
ур	-284
ға	-285
▁В	-286
ith	-287
нов	-288
▁is	-289
▁ma	-290
▁or	-291
tain	-292
▁част	-293
qu	-294
би	-295
оч	-296
ти	-297
ті	-298
ых	-299
▁M	-300
▁А	-301
ces	-302
und	-303
зна	-304
ный	-305
▁so	-306
▁ал	-307
▁кө	-308
ical	-309
алан	-310
ески	-311
▁inc	-312
редел	-313
▁with	-314
▁water	-315
mp	-316
ud	-317
ла	-318
те	-319
уы	-320
ую	-321
фи	-322
▁л	-323
yst	-324
асс	-325
лық	-326
ном	-327
ств	-328
сты	-329
▁al	-330
▁mo	-331
▁on	-332
▁ка	-333
▁ор	-334
▁тұ	-335
ance	-336
rain	-337
імді	-338
▁выс	-339
▁мен	-340
▁пов	-341
▁рег	-342
ility	-343
water	-344
ystem	-345
▁модели	-346
co	-347
ul	-348
ең	-349
ль	-350
оп	-351
ты	-352
чи	-353
▁v	-354
▁Т	-355
ari	-356
orm	-357
ort	-358
тар	-359
фер	-360
▁тү	-361
ктер	-362
ного	-363
▁воз	-364
▁или	-365
▁мет	-366
истем	-367
ability	-368
ig	-369
зу	-370
ма	-371
уі	-372
▁I	-373
▁n	-374
▁r	-375
age	-376
ers	-377
low	-378
дан	-379
мет	-380
ная	-381
пер	-382
рет	-383
қты	-384
▁ex	-385
▁ба	-386
▁са	-387
▁өз	-388
able	-389
ений	-390
ется	-391
▁исп	-392
▁эко	-393
ations	-394
ow	-395
pl	-396
ии	-397
ме	-398
ня	-399
рі	-400
ік	-401
үй	-402
ata	-403
ies	-404
per	-405
rib	-406
ары	-407
асы	-408
ное	-409
рақ	-410
ылы	-411
▁by	-412
▁ай	-413
▁ау	-414
▁ет	-415
▁оп	-416
▁со	-417
гори	-418
▁are	-419
▁per	-420
▁pre	-421
▁бет	-422
▁раз	-423
▁реш	-424
▁сто	-425
▁модель	-426
am	-427
ds	-428
ff	-429
ав	-430
бо	-431
ке	-432
ут	-433
ше	-434
▁К	-435
▁н	-436
▁х	-437
log	-438
ten	-439
ады	-440
гра	-441
дел	-442
ері	-443
жен	-444
ғал	-445
ған	-446
▁In	-447
▁be	-448
▁ch	-449
▁le	-450
▁se	-451
▁sh	-452
▁ар	-453
▁кл	-454
▁мо	-455
▁қа	-456
ions	-457
олог	-458
▁inf	-459
▁бел	-460
ribut	-461
▁пред	-462
ystems	-463
ически	-464
▁метри	-465
iz	-466
te	-467
ts	-468
еп	-469
же	-470
ку	-471
мк	-472
мы	-473
сі	-474
ши	-475
▁М	-476
▁О	-477
use	-478
дің	-479
зды	-480
ива	-481
рав	-482
ран	-483
ікт	-484
ғын	-485
үмк	-486
▁en	-487
▁жо	-488
here	-489
ning	-490
odel	-491
ания	-492
лігі	-493
ожет	-494
тори	-495
қтар	-496
▁dep	-497
▁res	-498
▁важ	-499
▁для	-500
▁жер	-501
▁объ	-502
емпер	-503
итель	-504
үмкін	-505
▁data	-506
▁that	-507
untain	-508
▁может	-509
емперат	-510
▁исполь	-511
▁мүмкін	-512
▁призна	-513
ak	-514
hi	-515
pp	-516
ая	-517
ге	-518
ид	-519
ий	-520
лу	-521
лы	-522
сл	-523
сс	-524
ят	-525
үш	-526
▁A	-527
▁F	-528
ive	-529
ару	-530
бор	-531
каз	-532
лед	-533
ную	-534
ным	-535
реб	-536
сур	-537
ыту	-538
▁ат	-539
▁бө	-540
▁уп	-541
arge	-542
ting	-543
чест	-544
ында	-545
▁may	-546
▁reg	-547
▁дол	-548
▁фор	-549
зация	-550
калық	-551
▁land	-552
▁воды	-553
▁дере	-554
▁измен	-555
▁ресур	-556
▁признаков	-557
ad	-558
ph	-559
ru	-560
ди	-561
ее	-562
нг	-563
рм	-564
уп	-565
юч	-566
▁Б	-567
▁Н	-568
▁С	-569
▁з	-570
ail	-571
ans	-572
est	-573
gen	-574
ics	-575
lud	-576
val	-577
ающ	-578
деу	-579
дық	-580
ерс	-581
ерх	-582
зов	-583
кой	-584
мат	-585
тық	-586
ура	-587
цен	-588
▁ad	-589
▁би	-590
▁до	-591
▁оқ	-592
алып	-593
ении	-594
ению	-595
ными	-596
▁dis	-597
▁set	-598
▁пол	-599
▁уст	-600
женер	-601
имост	-602
▁comp	-603
▁cont	-604
▁dist	-605
▁бетк	-606
▁const	-607
▁often	-608
▁инженер	-609
▁температ	-610
ac	-611
iv	-612
om	-613
ot	-614
um	-615
Ин	-616
ев	-617
ек	-618
ры	-619
ің	-620
▁T	-621
▁W	-622
ges	-623
lev	-624
lop	-625
ore	-626
айд	-627
ала	-628
ами	-629
вис	-630
вой	-631
жим	-632
лен	-633
льт	-634
лік	-635
опы	-636
пол	-637
цес	-638
цию	-639
ына	-640
▁an	-641
▁cl	-642
▁me	-643
▁жи	-644
▁но	-645
▁сп	-646
▁тө	-647
▁эк	-648
cess	-649
duce	-650
hile	-651
rans	-652
reas	-653
ашин	-654
держ	-655
елер	-656
особ	-657
чиво	-658
ғары	-659
▁gro	-660
▁man	-661
▁бай	-662
▁бір	-663
▁гра	-664
▁кез	-665
▁оши	-666
▁пер	-667
▁қат	-668
▁қол	-669
ature	-670
атель	-671
зации	-672
ление	-673
рация	-674
сімді	-675
▁chan	-676
▁over	-677
▁soil	-678
▁vari	-679
▁высо	-680
▁мони	-681
▁регу	-682
▁тара	-683
▁тест	-684
▁өзен	-685
charge	-686
арамет	-687
торинг	-688
▁depen	-689
▁model	-690
▁while	-691
▁высот	-692
▁етеді	-693
▁класс	-694
▁оқыту	-695
▁устой	-696
▁часто	-697
▁includ	-698
▁качест	-699
▁процес	-700
▁систем	-701
▁использу	-702
▁обучение	-703
▁мониторинг	-704
la	-705
ol	-706
ақ	-707
бл	-708
ду	-709
зи	-710
ие	-711
йф	-712
ск	-713
ыш	-714
apt	-715
cip	-716
cos	-717
dit	-718
ect	-719
erv	-720
ess	-721
gra	-722
igh	-723
ong	-724
асқ	-725
вод	-726
гін	-727
дік	-728
емы	-729
енс	-730
ент	-731
есе	-732
лож	-733
мещ	-734
нах	-735
ниц	-736
сад	-737
сть	-738
тро	-739
ыть	-740
▁ac	-741
▁мұ	-742
▁ту	-743
▁тә	-744
▁әс	-745
ason	-746
ates	-747
form	-748
resh	-749
ress	-750
vers	-751
ация	-752
ключ	-753
ляри	-754
прет	-755
рейф	-756
слов	-757
стар	-758
фика	-759
щест	-760
ются	-761
▁run	-762
▁und	-763
▁жау	-764
▁как	-765
▁сни	-766
▁соб	-767
▁әрі	-768
cipit	-769
cture	-770
imate	-771
аланс	-772
алида	-773
атист	-774
енных	-775
ления	-776
лерде	-777
осфер	-778
ылығы	-779
▁elev	-780
▁быть	-781
▁водо	-782
▁оцен	-783
▁пайд	-784
▁расп	-785
▁топы	-786
▁тұра	-787
▁экос	-788
arning	-789
ология	-790
▁inter	-791
▁under	-792
▁включ	-793
▁завис	-794
▁интер	-795
▁режим	-796
▁белдеу	-797
▁бөлігі	-798
▁жоғары	-799
▁поверх	-800
▁increas	-801
▁perform	-802
▁systems	-803
▁определ	-804
▁статист	-805
▁mountain	-806
▁регуляри	-807
cipitation	-808
▁constrain	-809
▁distribut	-810
▁распредел	-811
▁устойчиво	-812
▁экосистем	-813
fa	-814
mm	-815
ns	-816
ys	-817
бі	-818
ед	-819
еш	-820
му	-821
су	-822
ша	-823
ып	-824
яз	-825
іп	-826
ғи	-827
▁E	-828
▁Г	-829
▁Ж	-830
▁ү	-831
all	-832
ass	-833
ens	-834
ial	-835
iod	-836
lan	-837
now	-838
off	-839
ous	-840
бот	-841
вет	-842
дай	-843
дам	-844
дар	-845
ден	-846
ейт	-847
еңі	-848
жүй	-849
кая	-850
кже	-851
мер	-852
нал	-853
оны	-854
оят	-855
спи	-856
ғыс	-857
▁ag	-858
▁at	-859
▁er	-860
▁sp	-861
▁ес	-862
▁ти	-863
▁ық	-864
ence	-865
olog	-866
ural	-867
urfa	-868
vail	-869
valu	-870
атив	-871
биғи	-872
знач	-873
лары	-874
месе	-875
нықт	-876
огут	-877
▁dri	-878
▁for	-879
▁int	-880
▁met	-881
▁tem	-882
▁атм	-883
▁жыл	-884
▁кон	-885
▁пос	-886
▁пре	-887
▁рет	-888
▁сез	-889
▁қай	-890
▁қал	-891
▁қар	-892
▁қау	-893
▁қор	-894
▁құр	-895
▁өзг	-896
chine	-897
ments	-898
phere	-899
ается	-900
алану	-901
горит	-902
сперс	-903
іктік	-904
▁ecos	-905
▁high	-906
▁plan	-907
▁snow	-908
▁supp	-909
▁ағын	-910
▁вход	-911
▁обра	-912
▁орта	-913
▁пост	-914
▁сниж	-915
▁соот	-916
▁сред	-917
▁треб	-918
▁әсер	-919
asonal	-920
лардың	-921
мақтар	-922
ранспи	-923
▁surfa	-924
▁trans	-925
▁анықт	-926
▁могут	-927
▁реаль	-928
▁также	-929
▁тарал	-930
▁төмен	-931
▁услов	-932
ructure	-933
▁ground	-934
▁runoff	-935
▁немесе	-936
▁объект	-937
▁способ	-938
▁экожүй	-939
▁өсімді	-940
ализация	-941
▁depends	-942
▁моделей	-943
▁парамет	-944
▁ретінде	-945
reshwater	-946
▁атмосфер	-947
▁качества	-948
▁обучения	-949
ранспирация	-950
▁performance	-951
▁температура	-952
▁precipitation	-953
).	-954
bs	-955
ca	-956
ew	-957
ks	-958
ld	-959
li	-960
po	-961
ry	-962
up	-963
аң	-964
лш	-965
ое	-966
па	-967
ту	-968
чв	-969
щы	-970
яс	-971
ён	-972
қа	-973
ұр	-974
▁C	-975
▁D	-976
▁S	-977
▁Э	-978
▁р	-979
▁ц	-980
▁ұ	-981
▁“	-982
als	-983
ble	-984
dic	-985
get	-986
ide	-987
ign	-988
pro	-989
put	-990
qui	-991
ren	-992
rom	-993
ult	-994
urb	-995
wor	-996
акт	-997
ану	-998
есі	-999
зем	-1000
ких	-1001
ком	-1002
луч	-1003
мыл	-1004
нос	-1005
омп	-1006
оро	-1007
род	-1008
сіз	-1009
там	-1010
тег	-1011
тіп	-1012
фор	-1013
хит	-1014
шаш	-1015
ыва	-1016
ыны	-1017
қал	-1018
қыл	-1019
әти	-1020
▁hy	-1021
▁im	-1022
▁un	-1023
▁Ин	-1024
▁ан	-1025
▁бу	-1026
▁де	-1027
▁дә	-1028
▁кү	-1029
▁ми	-1030
▁уч	-1031
▁өн	-1032
ents	-1033
ific	-1034
imit	-1035
itud	-1036
laci	-1037
land	-1038
line	-1039
quif	-1040
ream	-1041
term	-1042
айды	-1043
асыз	-1044
аулы	-1045
бора	-1046
гани	-1047
еруі	-1048
етін	-1049
ичес	-1050
ница	-1051
обуч	-1052
онах	-1053
пасы	-1054
рады	-1055
рост	-1056
рукт	-1057
сказ	-1058
стық	-1059
цион	-1060
▁dur	-1061
▁exp	-1062
▁low	-1063
▁out	-1064
▁pat	-1065
▁rep	-1066
▁sco	-1067
▁str	-1068
▁tim	-1069
▁аза	-1070
▁ағы	-1071
▁дис	-1072
▁жаң	-1073
▁жел	-1074
▁күш	-1075
▁лед	-1076
▁скл	-1077
▁тер	-1078
▁точ	-1079
▁түр	-1080
▁цел	-1081
▁қаб	-1082
▁қам	-1083
eline	-1084
ional	-1085
аться	-1086
гілер	-1087
ероят	-1088
ивающ	-1089
миров	-1090
орные	-1091
оступ	-1092
римен	-1093
шашын	-1094
ществ	-1095
ғалау	-1096
▁from	-1097
▁prov	-1098
▁shif	-1099
▁slop	-1100
▁асты	-1101
▁зада	-1102
▁знач	-1103
▁осад	-1104
▁ошиб	-1105
▁почв	-1106
▁раст	-1107
▁слож	-1108
▁смещ	-1109
▁факт	-1110
ration	-1111
имости	-1112
исперс	-1113
мылғыс	-1114
▁adapt	-1115
▁limit	-1116
▁requi	-1117
▁train	-1118
▁более	-1119
▁важны	-1120
▁возду	-1121
▁жауын	-1122
▁ледни	-1123
▁набор	-1124
▁событ	-1125
▁стока	-1126
▁қайта	-1127
▁қалып	-1128
agement	-1129
ditions	-1130
quifers	-1131
▁беткей	-1132
▁жылдам	-1133
▁метрик	-1134
▁органи	-1135
▁примен	-1136
▁табиғи	-1137
▁changes	-1138
▁include	-1139
▁алгорит	-1140
▁метрики	-1141
▁поддерж	-1142
▁решений	-1143
▁топырақ	-1144
▁условия	-1145
valuation	-1146
▁learning	-1147
▁seasonal	-1148
▁аймақтар	-1149
▁белгілер	-1150
▁включает	-1151
▁деректер	-1152
▁жамылғыс	-1153
▁предсказ	-1154
▁интерпрет	-1155
▁conditions	-1156
▁management	-1157
▁groundwater	-1158
di	-1159
lu	-1160
me	-1161
pt	-1162
sc	-1163
su	-1164
th	-1165
ug	-1166
xy	-1167
yn	-1168
бе	-1169
бу	-1170
ег	-1171
еу	-1172
ех	-1173
ию	-1174
кс	-1175
кі	-1176
ть	-1177
ый	-1178
юд	-1179
яв	-1180
▁P	-1181
▁ы	-1182
abl	-1183
are	-1184
ast	-1185
elt	-1186
ely	-1187
fle	-1188
hen	-1189
her	-1190
ice	-1191
iff	-1192
ilt	-1193
ink	-1194
ize	-1195
led	-1196
mos	-1197
oir	-1198
our	-1199
par	-1200
ric	-1201
ror	-1202
ust	-1203
vap	-1204
vir	-1205
ата	-1206
ате	-1207
аус	-1208
ают	-1209
аңы	-1210
вап	-1211
вел	-1212
гей	-1213
гов	-1214
дап	-1215
ень	-1216
есп	-1217
ика	-1218
иру	-1219
исл	-1220
ить	-1221
ках	-1222
ким	-1223
лаж	-1224
лич	-1225
лия	-1226
мыс	-1227
нит	-1228
ода	-1229
пог	-1230
рах	-1231
ращ	-1232
рез	-1233
рем	-1234
рен	-1235
сін	-1236
тты	-1237
тік	-1238
ует	-1239
уры	-1240
ымы	-1241
ыст	-1242
яют	-1243
яющ	-1244
▁Mo	-1245
▁Th	-1246
▁bu	-1247
▁fe	-1248
▁ge	-1249
▁he	-1250
▁qu	-1251
▁ra	-1252
▁sc	-1253
▁ve	-1254
▁Ал	-1255
▁аз	-1256
▁ги	-1257
▁жұ	-1258
▁ли	-1259
▁ни	-1260
▁св	-1261
▁си	-1262
▁сә	-1263
▁ты	-1264
▁яв	-1265
▁үш	-1266
▁өң	-1267
aliz	-1268
ated	-1269
ateg	-1270
atic	-1271
cing	-1272
dict	-1273
inal	-1274
itor	-1275
over	-1276
pine	-1277
plic	-1278
puts	-1279
ract	-1280
rast	-1281
rics	-1282
uman	-1283
ажет	-1284
альп	-1285
аний	-1286
дағы	-1287
дірі	-1288
ейді	-1289
ерек	-1290
лады	-1291
ланы	-1292
ному	-1293
олық	-1294
онов	-1295
ость	-1296
ресс	-1297
став	-1298
ство	-1299
тенс	-1300
тими	-1301
ылым	-1302
ымда	-1303
қтау	-1304
▁but	-1305
▁eco	-1306
▁fra	-1307
▁gra	-1308
▁off	-1309
▁tre	-1310
▁val	-1311
▁Для	-1312
▁вид	-1313
▁гид	-1314
▁глу	-1315
▁гор	-1316
▁дең	-1317
▁дәл	-1318
▁ист	-1319
▁кот	-1320
▁лог	-1321
▁мер	-1322
▁над	-1323
▁нап	-1324
▁нов	-1325
▁пок	-1326
▁ред	-1327
▁сал	-1328
▁сне	-1329
▁сон	-1330
▁что	-1331
▁эро	-1332
▁это	-1333
cause	-1334
ering	-1335
flect	-1336
graph	-1337
ource	-1338
tings	-1339
urban	-1340
viron	-1341
xygen	-1342
ассей	-1343
аттар	-1344
аусым	-1345
вапот	-1346
грани	-1347
ейтін	-1348
енной	-1349
ифика	-1350
лимат	-1351
льтра	-1352
нения	-1353
номер	-1354
одель	-1355
поген	-1356
полня	-1357
ратег	-1358
чески	-1359
шение	-1360
яется	-1361
қылау	-1362
▁diff	-1363
▁evap	-1364
▁flow	-1365
▁form	-1366
▁long	-1367
▁test	-1368
▁басқ	-1369
▁вода	-1370
▁врем	-1371
▁комп	-1372
▁көбі	-1373
▁маңы	-1374
▁набл	-1375
▁нәти	-1376
▁пере	-1377
▁поня	-1378
▁пров	-1379
▁свой	-1380
▁степ	-1381
▁үшін	-1382
ervoir	-1383
ically	-1384
onitor	-1385
ricult	-1386
ветств	-1387
икалық	-1388
имость	-1389
тенсив	-1390
▁Water	-1391
▁atmos	-1392
▁avail	-1393
▁glaci	-1394
▁pract	-1395
▁produ	-1396
▁shift	-1397
▁soils	-1398
▁their	-1399
▁veget	-1400
▁айнал	-1401
▁ағыны	-1402
▁беткі	-1403
▁болуы	-1404
▁болып	-1405
▁гради	-1406
▁дрейф	-1407
▁кезең	-1408
▁машин	-1409
▁мұзды	-1410
▁повыш	-1411
▁показ	-1412
▁сезон	-1413
▁толық	-1414
▁управ	-1415
▁часть	-1416
▁қажет	-1417
logical	-1418
tection	-1419
атегори	-1420
ические	-1421
рования	-1422
тамасыз	-1423
▁during	-1424
▁period	-1425
▁reduce	-1426
▁slopes	-1427
▁temper	-1428
▁байқал	-1429
▁баланс	-1430
▁бассей	-1431
▁болады	-1432
▁деңгей	-1433
▁маусым	-1434
▁ограни	-1435
▁оптими	-1436
▁послед	-1437
▁ресурс	-1438
▁сапасы	-1439
▁сақтау	-1440
▁структ	-1441
▁тұрақт	-1442
▁фактор	-1443
алидация	-1444
ификации	-1445
тропоген	-1446
▁climate	-1447
▁environ	-1448
▁infrast	-1449
▁metrics	-1450
▁predict	-1451
▁provide	-1452
▁reflect	-1453
▁require	-1454
▁support	-1455
▁surface	-1456
▁байланы	-1457
▁басқару	-1458
▁бағалау	-1459
▁бақылау	-1460
▁входных	-1461
▁зависит	-1462
▁маңызды	-1463
▁объекта	-1464
▁осадков	-1465
▁процесс	-1466
▁регресс	-1467
▁решения	-1468
▁стратег	-1469
▁өзендер	-1470
iltration	-1471
onitoring	-1472
ативность	-1473
ологиялық	-1474
▁Mountain	-1475
▁agricult	-1476
▁aquifers	-1477
▁increase	-1478
▁recharge	-1479
▁resource	-1480
▁settings	-1481
▁training	-1482
▁интенсив	-1483
▁переобуч	-1484
▁discharge	-1485
▁elevation	-1486
▁белдеулер	-1487
▁изменения	-1488
▁маусымдық	-1489
▁модельдер	-1490
▁пайдалану	-1491
▁ecological	-1492
▁ecosystems	-1493
▁evaluation	-1494
▁vegetation	-1495
▁соответств	-1496
▁управления	-1497
▁экожүйелер	-1498
▁экосистемы	-1499
▁қамтамасыз	-1500
▁constraints	-1501
▁устойчивость	-1502
▁регуляризации	-1503
▁infrastructure	-1504
вапотранспирация	-1505
UC	-1506
av	-1507
cy	-1508
ft	-1509
gn	-1510
se	-1511
xi	-1512
yp	-1513
ад	-1514
ам	-1515
ап	-1516
ви	-1517
вь	-1518
ги	-1519
еж	-1520
из	-1521
ик	-1522
йы	-1523
нк	-1524
ок	-1525
пш	-1526
рс	-1527
тқ	-1528
ус	-1529
ху	-1530
ые	-1531
яй	-1532
іс	-1533
ңғ	-1534
ұл	-1535
▁G	-1536
▁H	-1537
▁N	-1538
▁O	-1539
▁R	-1540
▁И	-1541
▁і	-1542
▁Қ	-1543
▁Ө	-1544
ack	-1545
ant	-1546
any	-1547
ape	-1548
ard	-1549
arm	-1550
ary	-1551
bal	-1552
cer	-1553
cle	-1554
cum	-1555
dro	-1556
ese	-1557
fin	-1558
fit	-1559
gan	-1560
hys	-1561
ify	-1562
ise	-1563
ler	-1564
los	-1565
loy	-1566
new	-1567
ond	-1568
oth	-1569
own	-1570
pir	-1571
por	-1572
pre	-1573
rig	-1574
rol	-1575
ugh	-1576
аби	-1577
ари	-1578
аты	-1579
бок	-1580
бір	-1581
гда	-1582
гіз	-1583
дал	-1584
дет	-1585
дит	-1586
дра	-1587
жау	-1588
зия	-1589
кел	-1590
кие	-1591
лан	-1592
лем	-1593
лот	-1594
ней	-1595
нем	-1596
овс	-1597
оды	-1598
ора	-1599
оря	-1600
пли	-1601
раж	-1602
реж	-1603
рек	-1604
риб	-1605
рон	-1606
рос	-1607
рощ	-1608
сам	-1609
ско	-1610
сол	-1611
сте	-1612
тал	-1613
тас	-1614
тим	-1615
тын	-1616
унк	-1617
уын	-1618
ующ	-1619
уін	-1620
яет	-1621
язв	-1622
ғақ	-1623
ғыз	-1624
ұщы	-1625
▁ML	-1626
▁Ma	-1627
▁du	-1628
▁fo	-1629
▁if	-1630
▁ob	-1631
▁ri	-1632
▁us	-1633
▁Ан	-1634
▁Та	-1635
▁аб	-1636
▁ап	-1637
▁бі	-1638
▁да	-1639
▁ем	-1640
▁ен	-1641
▁мә	-1642
▁ох	-1643
▁ск	-1644
▁ци	-1645
▁ша	-1646
▁шу	-1647
▁үй	-1648
▁үл	-1649
abel	-1650
abit	-1651
ains	-1652
akes	-1653
cept	-1654
flow	-1655
gine	-1656
imes	-1657
ines	-1658
ject	-1659
lood	-1660
ogen	-1661
osit	-1662
pack	-1663
port	-1664
ppro	-1665
pret	-1666
rent	-1667
such	-1668
ynam	-1669
айда	-1670
айес	-1671
айын	-1672
алар	-1673
алиб	-1674
анов	-1675
асет	-1676
атын	-1677
ации	-1678
вать	-1679
вают	-1680
вьев	-1681
даны	-1682
дары	-1683
делу	-1684
ейім	-1685
екті	-1686
елов	-1687
емое	-1688
емых	-1689
ерез	-1690
ешен	-1691
лекс	-1692
ники	-1693
номи	-1694
обра	-1695
озяй	-1696
орой	-1697
орре	-1698
ости	-1699
перп	-1700
ракт	-1701
раст	-1702
роса	-1703
рсет	-1704
сная	-1705
сплу	-1706
сход	-1707
треб	-1708
ілік	-1709
қара	-1710
қылы	-1711
ұрыс	-1712
▁The	-1713
▁ass	-1714
▁bas	-1715
▁col	-1716
▁cre	-1717
▁dec	-1718
▁des	-1719
▁dom	-1720
▁est	-1721
▁fun	-1722
▁lif	-1723
▁mod	-1724
▁net	-1725
▁oce	-1726
▁ret	-1727
▁tas	-1728
▁typ	-1729
▁win	-1730
▁Вод	-1731
▁При	-1732
▁ауа	-1733
▁без	-1734
▁бой	-1735
▁дав	-1736
▁жаз	-1737
▁жүй	-1738
▁кей	-1739
▁кел	-1740
▁кол	-1741
▁кро	-1742
▁лес	-1743
▁мас	-1744
▁мат	-1745
▁мин	-1746
▁низ	-1747
▁оро	-1748
▁сет	-1749
▁сия	-1750
▁ско	-1751
▁сол	-1752
▁сре	-1753
▁суб	-1754
▁суы	-1755
▁сің	-1756
▁таң	-1757
▁тұр	-1758
▁фин	-1759
▁қыс	-1760
akage	-1761
ality	-1762
ating	-1763
cumul	-1764
ensit	-1765
ities	-1766
itude	-1767
orage	-1768
osion	-1769
overn	-1770
terns	-1771
upled	-1772
urces	-1773
works	-1774
аланы	-1775
анные	-1776
велич	-1777
дапта	-1778
ельно	-1779
ением	-1780
еспеч	-1781
зімді	-1782
ивают	-1783
ируем	-1784
нение	-1785
олько	-1786
ремен	-1787
ример	-1788
ровка	-1789
стыру	-1790
тимал	-1791
ывает	-1792
ылғал	-1793
ынайы	-1794
ындау	-1795
▁Many	-1796
▁buff	-1797
▁comm	-1798
▁fail	-1799
▁into	-1800
▁link	-1801
▁magn	-1802
▁main	-1803
▁many	-1804
▁mass	-1805
▁mean	-1806
▁meas	-1807
▁melt	-1808
▁more	-1809
▁oper	-1810
▁real	-1811
▁redu	-1812
▁reli	-1813
▁some	-1814
▁sust	-1815
▁than	-1816
▁time	-1817
▁Дере	-1818
▁азаю	-1819
▁боль	-1820
▁быст	-1821
▁влия	-1822
▁доли	-1823
▁есеп	-1824
▁жиын	-1825
▁зако	-1826
▁клас	-1827
▁пери	-1828
▁реги	-1829
▁снеж	-1830
▁срав	-1831
▁сток	-1832
▁тапш	-1833
▁улуч	-1834
▁уязв	-1835
▁функ	-1836
▁хара	-1837
▁цикл	-1838
▁явля	-1839
▁құра	-1840
▁құру	-1841
▁өңір	-1842
abitat	-1843
action	-1844
atures	-1845
dients	-1846
idence	-1847
resent	-1848
альные	-1849
альных	-1850
атасет	-1851
земных	-1852
ологии	-1853
ользов	-1854
оррект	-1855
ражающ	-1856
ритори	-1857
родных	-1858
формат	-1859
хитект	-1860
індегі	-1861
▁Model	-1862
▁appro	-1863
▁defin	-1864
▁drift	-1865
▁dynam	-1866
▁error	-1867
▁human	-1868
▁impro	-1869
▁lower	-1870
▁moist	-1871
▁organ	-1872
▁press	-1873
▁renew	-1874
▁score	-1875
▁short	-1876
▁store	-1877
▁urban	-1878
▁where	-1879
▁артық	-1880
▁аудит	-1881
▁бейім	-1882
▁беруі	-1883
▁бірақ	-1884
▁видов	-1885
▁возни	-1886
▁выбор	-1887
▁глуби	-1888
▁дұрыс	-1889
▁кешен	-1890
▁негіз	-1891
▁новых	-1892
▁повед	-1893
▁получ	-1894
▁почвы	-1895
▁прост	-1896
▁стаби	-1897
▁судың	-1898
▁тығыз	-1899
▁түрде	-1900
▁түсін	-1901
▁упрощ	-1902
▁участ	-1903
▁челов	-1904
▁через	-1905
▁үйрен	-1906
assific	-1907
ategies	-1908
ational	-1909
ervoirs	-1910
fitting	-1911
idation	-1912
lection	-1913
loyment	-1914
onation	-1915
айесовс	-1916
зование	-1917
ических	-1918
ической	-1919
стықтар	-1920
▁alpine	-1921
▁geolog	-1922
▁govern	-1923
▁inputs	-1924
▁landsc	-1925
▁oxygen	-1926
▁sensit	-1927
▁stream	-1928
▁арқылы	-1929
▁ағынды	-1930
▁вероят	-1931
▁водами	-1932
▁задерж	-1933
▁көбіне	-1934
▁көрсет	-1935
▁нәтиже	-1936
▁оценки	-1937
▁ошибок	-1938
▁подход	-1939
▁понять	-1940
▁потреб	-1941
▁привод	-1942
▁провер	-1943
▁сияқты	-1944
▁сондай	-1945
▁частот	-1946
▁шынайы	-1947
▁қолдан	-1948
▁құрғақ	-1949
piration	-1950
ribution	-1951
исперсия	-1952
нительно	-1953
▁Machine	-1954
▁accumul	-1955
▁because	-1956
▁control	-1957
▁coupled	-1958
▁erosion	-1959
▁habitat	-1960
▁machine	-1961
▁offline	-1962
▁periods	-1963
▁quality	-1964
▁regimes	-1965
▁sources	-1966
▁storage	-1967
▁времени	-1968
▁выполня	-1969
▁высокая	-1970
▁деңгейі	-1971
▁которой	-1972
▁обеспеч	-1973
▁огранич	-1974
▁сложные	-1975
▁степень	-1976
▁толықты	-1977
▁требует	-1978
▁тұрақты	-1979
▁төменде	-1980
▁ықтимал	-1981
▁қауымда	-1982
▁қолданы	-1983
▁өсімдік	-1984
alization	-1985
gineering	-1986
мализация	-1987
▁dynamics	-1988
▁function	-1989
▁networks	-1990
▁patterns	-1991
▁pressure	-1992
▁snowpack	-1993
▁Деректер	-1994
▁архитект	-1995
▁деревьев	-1996
▁значений	-1997
▁категори	-1998
▁комплекс	-1999
▁ледников	-2000
▁представ	-2001
▁процесса	-2002
▁характер	-2003
▁қабаттар	-2004
ительности	-2005
▁gradients	-2006
▁including	-2007
▁interpret	-2008
▁represent	-2009
▁sensitive	-2010
▁typically	-2011
▁беткейлер	-2012
▁жамылғысы	-2013
▁закономер	-2014
▁мұздықтар	-2015
▁природных	-2016
▁ресурстар	-2017
▁тапшылығы	-2018
▁территори	-2019
▁Freshwater	-2020
▁freshwater	-2021
▁monitoring	-2022
▁protection	-2023
▁strategies	-2024
▁Антропоген	-2025
▁инженерлік	-2026
▁поверхност	-2027
▁показатель	-2028
▁температур	-2029
▁өсімдіктер	-2030
ариативность	-2031
▁adaptations	-2032
▁operational	-2033
▁variability	-2034
▁зависимости	-2035
▁органикалық	-2036
▁availability	-2037
▁distribution	-2038
▁infiltration	-2039
▁обеспечивающ	-2040
▁distributions	-2041
▁классификации	-2042
▁қауымдастықтар	-2043
),	-2044
Be	-2045
ay	-2046
az	-2047
bo	-2048
ck	-2049
ec	-2050
eg	-2051
ep	-2052
ip	-2053
ke	-2054
ms	-2055
so	-2056
xt	-2057
»,	-2058
ах	-2059
га	-2060
др	-2061
еб	-2062
зб	-2063
зё	-2064
зі	-2065
их	-2066
ищ	-2067
йк	-2068
ло	-2069
лю	-2070
ню	-2071
пт	-2072
пы	-2073
рэ	-2074
тп	-2075
тү	-2076
ув	-2077
уж	-2078
уш	-2079
фф	-2080
че	-2081
чё	-2082
ыз	-2083
ыч	-2084
ығ	-2085
ёп	-2086
өл	-2087
▁L	-2088
▁y	-2089
▁z	-2090
▁У	-2091
▁е	-2092
ace	-2093
act	-2094
avi	-2095
bas	-2096
bit	-2097
cio	-2098
cod	-2099
mo	-2100
еф	-2101
жі	-2102
рб	-2103
ях	-2104
қс	-2105
col	-2106
cur	-2107
dra	-2108
eci	-2109
ell	-2110
emb	-2111
ets	-2112
fac	-2113
gre	-2114
hed	-2115
hel	-2116
hem	-2117
ied	-2118
iel	-2119
ild	-2120
ill	-2121
ins	-2122
int	-2123
inu	-2124
isk	-2125
les	-2126
mit	-2127
oes	-2128
ons	-2129
out	-2130
ows	-2131
pid	-2132
ppl	-2133
ref	-2134
rit	-2135
sts	-2136
ump	-2137
uth	-2138
ven	-2139
xim	-2140
аже	-2141
арб	-2142
аса	-2143
ақс	-2144
бищ	-2145
был	-2146
вле	-2147
гно	-2148
гон	-2149
гор	-2150
гот	-2151
гре	-2152
дау	-2153
дей	-2154
дко	-2155
ека	-2156
ена	-2157
ери	-2158
ерм	-2159
есм	-2160
еся	-2161
жет	-2162
зат	-2163
зом	-2164
зон	-2165
изи	-2166
ийс	-2167
ики	-2168
имы	-2169
ина	-2170
йды	-2171
кви	-2172
кем	-2173
кий	-2174
кое	-2175
кті	-2176
кіш	-2177
лат	-2178
лау	-2179
ман	-2180
мож	-2181
мыш	-2182
мір	-2183
неч	-2184
ник	-2185
ним	-2186
ния	-2187
нюю	-2188
ому	-2189
отр	-2190
пал	-2191
пас	-2192
пич	-2193
под	-2194
про	-2195
пус	-2196
рак	-2197
рит	-2198
рой	-2199
рун	-2200
рыт	-2201
рэп	-2202
сах	-2203
сел	-2204
сти	-2205
сын	-2206
сіл	-2207
сіп	-2208
тах	-2209
теу	-2210
теч	-2211
тың	-2212
уді	-2213
уют	-2214
худ	-2215
чес	-2216
шая	-2217
шта	-2218
эко	-2219
юда	-2220
яды	-2221
ями	-2222
яса	-2223
қар	-2224
ңды	-2225
үру	-2226
өлш	-2227
▁Al	-2228
▁Be	-2229
▁ar	-2230
▁ca	-2231
▁ir	-2232
▁lo	-2233
▁ro	-2234
▁sa	-2235
▁we	-2236
▁Би	-2237
▁Ка	-2238
▁Кл	-2239
▁Мұ	-2240
▁Су	-2241
▁Ти	-2242
▁ге	-2243
▁го	-2244
▁их	-2245
▁ко	-2246
▁кі	-2247
▁лу	-2248
▁од	-2249
▁ос	-2250
▁оц	-2251
▁оч	-2252
▁ри	-2253
▁то	-2254
▁тр	-2255
▁ув	-2256
▁шө	-2257
▁эв	-2258
▁эт	-2259
▁қо	-2260
▁әл	-2261
▁әр	-2262
▁өт	-2263
amet	-2264
apac	-2265
apes	-2266
ards	-2267
ariz	-2268
arly	-2269
atas	-2270
atch	-2271
aten	-2272
cipl	-2273
dist	-2274
elts	-2275
ener	-2276
entr	-2277
eous	-2278
eric	-2279
fall	-2280
grad	-2281
greg	-2282
ices	-2283
iodi	-2284
ipel	-2285
ists	-2286
ives	-2287
leas	-2288
lexi	-2289
logy	-2290
loit	-2291
mand	-2292
mote	-2293
ness	-2294
omic	-2295
oral	-2296
rest	-2297
rodu	-2298
tens	-2299
люв	-2300
bove	-2301
econ	-2302
havi	-2303
urns	-2304
vari	-2305
ycle	-2306
yond	-2307
zing	-2308
алич	-2309
алия	-2310
ании	-2311
асть	-2312
асым	-2313
ател	-2314
блей	-2315
бреж	-2316
вает	-2317
верс	-2318
вращ	-2319
гізу	-2320
дель	-2321
делі	-2322
дици	-2323
драт	-2324
дыра	-2325
дығы	-2326
дықт	-2327
дірм	-2328
діст	-2329
евой	-2330
егет	-2331
егін	-2332
един	-2333
ежду	-2334
екен	-2335
елік	-2336
емат	-2337
емые	-2338
емый	-2339
енер	-2340
енос	-2341
ерең	-2342
еңіз	-2343
зады	-2344
ивот	-2345
ивых	-2346
ится	-2347
клад	-2348
клон	-2349
кращ	-2350
крим	-2351
лаги	-2352
лану	-2353
леді	-2354
лықт	-2355
льеф	-2356
мент	-2357
меют	-2358
мини	-2359
миру	-2360
мисс	-2361
недр	-2362
неді	-2363
няет	-2364
овер	-2365
овую	-2366
овый	-2367
огда	-2368
олод	-2369
онат	-2370
онос	-2371
опро	-2372
пара	-2373
през	-2374
пына	-2375
расы	-2376
реді	-2377
рует	-2378
спар	-2379
спех	-2380
ства	-2381
стин	-2382
сына	-2383
тады	-2384
терь	-2385
тері	-2386
триб	-2387
ттың	-2388
тіру	-2389
утст	-2390
учше	-2391
уына	-2392
фера	-2393
цией	-2394
чины	-2395
шает	-2396
ылар	-2397
ынша	-2398
ынын	-2399
горь	-2400
грег	-2401
ычно	-2402
ючев	-2403
ілер	-2404
інен	-2405
інің	-2406
ғана	-2407
қтың	-2408
ңғар	-2409
▁AUC	-2410
▁Pre	-2411
▁abs	-2412
▁act	-2413
▁air	-2414
▁alg	-2415
▁cho	-2416
▁dry	-2417
▁due	-2418
▁eff	-2419
▁ext	-2420
▁haz	-2421
▁how	-2422
▁mat	-2423
▁min	-2424
▁mis	-2425
▁non	-2426
▁not	-2427
▁par	-2428
▁por	-2429
▁pri	-2430
▁rec	-2431
▁sal	-2432
▁sim	-2433
▁sub	-2434
▁suc	-2435
▁ter	-2436
▁tra	-2437
▁tun	-2438
▁use	-2439
▁Бұл	-2440
▁Важ	-2441
▁Жер	-2442
▁Кей	-2443
▁Мыс	-2444
▁Ней	-2445
▁Под	-2446
▁Эти	-2447
▁Это	-2448
▁акт	-2449
▁асп	-2450
▁бар	-2451
▁бат	-2452
▁бағ	-2453
▁вет	-2454
▁гиб	-2455
▁деп	-2456
▁дет	-2457
▁жай	-2458
▁жин	-2459
▁ино	-2460
▁кет	-2461
▁код	-2462
▁кру	-2463
▁кір	-2464
▁күн	-2465
▁күр	-2466
▁көш	-2467
▁лок	-2468
▁мал	-2469
▁озё	-2470
▁оке	-2471
▁они	-2472
▁пор	-2473
▁свя	-2474
▁сен	-2475
▁сер	-2476
▁соз	-2477
▁тау	-2478
▁тек	-2479
▁теч	-2480
▁тун	-2481
▁тыс	-2482
▁тёп	-2483
▁тәу	-2484
▁урб	-2485
▁фос	-2486
▁чем	-2487
▁чув	-2488
▁шеш	-2489
▁іст	-2490
▁қан	-2491
▁ұст	-2492
▁өлш	-2493
ables	-2494
adows	-2495
arial	-2496
atial	-2497
avail	-2498
ceive	-2499
celer	-2500
erent	-2501
hibit	-2502
iment	-2503
ished	-2504
ision	-2505
lobal	-2506
osure	-2507
ownst	-2508
pidly	-2509
rough	-2510
titud	-2511
velop	-2512
world	-2513
Интер	-2514
Машин	-2515
алдар	-2516
ализа	-2517
андық	-2518
анный	-2519
ануар	-2520
аруаш	-2521
асқан	-2522
аются	-2523
ающую	-2524
ақсат	-2525
ботки	-2526
броса	-2527
влека	-2528
готов	-2529
грают	-2530
гінің	-2531
дения	-2532
денса	-2533
детте	-2534
ейеді	-2535
ектор	-2536
елері	-2537
енеді	-2538
енный	-2539
еңіст	-2540
жение	-2541
зульт	-2542
извод	-2543
иться	-2544
иялық	-2545
кость	-2546
ларға	-2547
лерді	-2548
мадан	-2549
мерно	-2550
метно	-2551
новля	-2552
обход	-2553
овать	-2554
ольку	-2555
остав	-2556
пасов	-2557
риров	-2558
рмалы	-2559
ровоч	-2560
солют	-2561
страк	-2562
тарды	-2563
тасты	-2564
течек	-2565
фильт	-2566
ципли	-2567
штабу	-2568
ывать	-2569
ықтық	-2570
яются	-2571
ённые	-2572
іктеу	-2573
іктір	-2574
ғалту	-2575
▁Over	-2576
▁This	-2577
▁When	-2578
▁also	-2579
▁area	-2580
▁both	-2581
▁chem	-2582
▁clim	-2583
▁clos	-2584
▁cold	-2585
▁cool	-2586
▁cost	-2587
▁crit	-2588
▁does	-2589
▁fore	-2590
▁grow	-2591
▁lead	-2592
▁life	-2593
▁move	-2594
▁must	-2595
▁phys	-2596
▁pump	-2597
▁repl	-2598
▁risk	-2599
▁scal	-2600
▁sign	-2601
▁summ	-2602
▁topo	-2603
▁warm	-2604
▁well	-2605
▁wind	-2606
▁Соны	-2607
▁Тест	-2608
▁Тұщы	-2609
▁акви	-2610
▁альп	-2611
▁аума	-2612
▁ауыл	-2613
▁выше	-2614
▁гидр	-2615
▁гори	-2616
▁грун	-2617
▁даже	-2618
▁долж	-2619
▁доля	-2620
▁емес	-2621
▁если	-2622
▁жаңа	-2623
▁зоны	-2624
▁икем	-2625
▁инфи	-2626
▁итер	-2627
▁карб	-2628
▁кері	-2629
▁кисл	-2630
▁масс	-2631
▁мера	-2632
▁мере	-2633
▁моза	-2634
▁мөлш	-2635
▁нере	-2636
▁ново	-2637
▁норм	-2638
▁отте	-2639
▁паст	-2640
▁повт	-2641
▁пояс	-2642
▁прив	-2643
▁ради	-2644
▁расс	-2645
▁риск	-2646
▁роль	-2647
▁рост	-2648
▁салы	-2649
▁саны	-2650
▁связ	-2651
▁сель	-2652
▁смен	-2653
▁сооб	-2654
▁суше	-2655
▁суық	-2656
▁сәйк	-2657
▁тиіс	-2658
▁туғы	-2659
▁тұщы	-2660
▁тәжі	-2661
▁уров	-2662
▁ухуд	-2663
▁физи	-2664
▁цели	-2665
▁чрез	-2666
▁шара	-2667
▁шект	-2668
▁элем	-2669
▁ғана	-2670
▁қара	-2671
▁қате	-2672
▁қауп	-2673
▁әкел	-2674
▁өмір	-2675
atency	-2676
atural	-2677
cesses	-2678
coding	-2679
ential	-2680
facing	-2681
graphy	-2682
inuous	-2683
mental	-2684
ograph	-2685
otrans	-2686
pheric	-2687
refore	-2688
ulariz	-2689
Модель	-2690
альное	-2691
альной	-2692
аратын	-2693
вадрат	-2694
вается	-2695
грации	-2696
дарына	-2697
деледі	-2698
дицина	-2699
дықтан	-2700
дірмел	-2701
ейтеді	-2702
елерді	-2703
есмотр	-2704
есінде	-2705
земные	-2706
ийские	-2707
инация	-2708
иялары	-2709
лануды	-2710
ланған	-2711
ммиров	-2712
мышлен	-2713
нейных	-2714
ностью	-2715
опросы	-2716
ранств	-2717
рақтың	-2718
ромисс	-2719
способ	-2720
трибут	-2721
ференс	-2722
хиттар	-2723
чество	-2724
щества	-2725
ылығын	-2726
юдение	-2727
қарады	-2728
ңдылық	-2729
▁These	-2730
▁addit	-2731
▁alter	-2732
▁belts	-2733
▁biodi	-2734
▁capac	-2735
▁catch	-2736
▁cover	-2737
▁drain	-2738
▁exper	-2739
▁flexi	-2740
▁flood	-2741
▁gener	-2742
▁heter	-2743
▁hydro	-2744
▁influ	-2745
▁irrig	-2746
▁label	-2747
▁lakes	-2748
▁ocean	-2749
▁pipel	-2750
▁plant	-2751
▁reuse	-2752
▁socio	-2753
▁speci	-2754
▁tasks	-2755
▁Дрейф	-2756
▁Машин	-2757
▁Таким	-2758
▁Таулы	-2759
▁азаюы	-2760
▁аллюв	-2761
▁ансам	-2762
▁артты	-2763
▁балан	-2764
▁бутст	-2765
▁важен	-2766
▁важна	-2767
▁вегет	-2768
▁влаги	-2769
▁внедр	-2770
▁возоб	-2771
▁выход	-2772
▁горах	-2773
▁дерек	-2774
▁довер	-2775
▁домен	-2776
▁жауап	-2777
▁жиыны	-2778
▁жұмыс	-2779
▁измер	-2780
▁имеют	-2781
▁испар	-2782
▁источ	-2783
▁калиб	-2784
▁кейде	-2785
▁керек	-2786
▁колеб	-2787
▁кросс	-2788
▁лучше	-2789
▁между	-2790
▁метод	-2791
▁минер	-2792
▁налич	-2793
▁нақты	-2794
▁непол	-2795
▁объяс	-2796
▁орман	-2797
▁отлич	-2798
▁относ	-2799
▁оцени	-2800
▁полез	-2801
▁пояса	-2802
▁практ	-2803
▁работ	-2804
▁разра	-2805
▁реках	-2806
▁сайын	-2807
▁среде	-2808
▁сулар	-2809
▁сумен	-2810
▁таулы	-2811
▁терең	-2812
▁терра	-2813
▁теңіз	-2814
▁тогда	-2815
▁трени	-2816
▁тұрғы	-2817
▁тәсіл	-2818
▁уплот	-2819
▁формы	-2820
▁халық	-2821
▁хозяй	-2822
▁холод	-2823
▁ыдыра	-2824
▁ылғал	-2825
▁ықпал	-2826
▁эвтро	-2827
▁қатар	-2828
▁үлесі	-2829
▁әдіст	-2830
▁өзгер	-2831
ainable	-2832
atasets	-2833
cipline	-2834
essment	-2835
oration	-2836
osition	-2837
osphere	-2838
ruction	-2839
urement	-2840
versity	-2841
айындау	-2842
брежных	-2843
деление	-2844
дірісте	-2845
ентатив	-2846
мещение	-2847
номалия	-2848
ношение	-2849
ователь	-2850
рование	-2851
сплуата	-2852
ционную	-2853
ческими	-2854
ществен	-2855
ындайды	-2856
экономи	-2857
▁Models	-2858
▁aggreg	-2859
▁behavi	-2860
▁change	-2861
▁commun	-2862
▁comple	-2863
▁concer	-2864
▁degrad	-2865
▁demand	-2866
▁depend	-2867
▁design	-2868
▁downst	-2869
▁implic	-2870
▁improv	-2871
▁inform	-2872
▁linked	-2873
▁masses	-2874
▁matter	-2875
▁models	-2876
▁object	-2877
▁percol	-2878
▁releas	-2879
▁rivers	-2880
▁scores	-2881
▁stable	-2882
▁strong	-2883
▁supply	-2884
▁system	-2885
▁tempor	-2886
▁timing	-2887
▁tuning	-2888
▁Алайда	-2889
▁Горные	-2890
▁Кейбір	-2891
▁Климат	-2892
▁Модель	-2893
▁Мысалы	-2894
▁Нейрон	-2895
▁адапта	-2896
▁ағынын	-2897
▁болжау	-2898
▁больше	-2899
▁бустин	-2900
▁валида	-2901
▁водный	-2902
▁воздух	-2903
▁воздуш	-2904
▁возмож	-2905
▁выбора	-2906
▁гидрос	-2907
▁гиперп	-2908
▁границ	-2909
▁домини	-2910
▁доступ	-2911
▁дрейфа	-2912
▁енгізу	-2913
▁ететін	-2914
▁задачи	-2915
▁играют	-2916
▁инверс	-2917
▁иногда	-2918
▁интерв	-2919
▁кеңіст	-2920
▁классы	-2921
▁логист	-2922
▁мақсат	-2923
▁направ	-2924
▁обычно	-2925
▁озёрах	-2926
▁орогра	-2927
▁ортада	-2928
▁орташа	-2929
▁отклон	-2930
▁оценку	-2931
▁ошибку	-2932
▁покров	-2933
▁постро	-2934
▁поступ	-2935
▁потерь	-2936
▁пропус	-2937
▁различ	-2938
▁расход	-2939
▁редких	-2940
▁режима	-2941
▁рельеф	-2942
▁репрез	-2943
▁сокращ	-2944
▁средне	-2945
▁стоком	-2946
▁суының	-2947
▁только	-2948
▁требов	-2949
▁увелич	-2950
▁ультра	-2951
▁урбани	-2952
▁утечек	-2953
▁чувств	-2954
▁шаруаш	-2955
▁эрозия	-2956
▁қолжет	-2957
▁құрамы	-2958
▁Өсімді	-2959
celerate	-2960
economic	-2961
ographic	-2962
ological	-2963
грегация	-2964
ельности	-2965
ирования	-2966
исперсию	-2967
ительных	-2968
медицина	-2969
оступная	-2970
параттың	-2971
рованные	-2972
стырмалы	-2973
шашынның	-2974
▁closely	-2975
▁contain	-2976
▁develop	-2977
▁exhibit	-2978
▁exploit	-2979
▁forests	-2980
▁glacier	-2981
▁leakage	-2982
▁limited	-2983
▁meadows	-2984
▁organic	-2985
▁promote	-2986
▁pumping	-2987
▁rapidly	-2988
▁receive	-2989
▁regions	-2990
▁returns	-2991
▁spatial	-2992
▁success	-2993
▁through	-2994
▁without	-2995
▁Инфильт	-2996
▁Сонымен	-2997
▁абсолют	-2998
▁аквифер	-2999
▁анықтал	-3000
▁анықтау	-3001
▁бассейн	-3002
▁бағалан	-3003
▁биіктік	-3004
▁бойынша	-3005
▁возника	-3006
▁вопросы	-3007
▁выборки	-3008
▁высотой	-3009
▁глубина	-3010
▁горизон	-3011
▁градиен	-3012
▁граница	-3013
▁дискрим	-3014
▁долинах	-3015
▁жайылым	-3016
▁желілер	-3017
▁жиналып	-3018
▁жоғалту	-3019
▁заметно	-3020
▁извлека	-3021
▁кезінде	-3022
▁келтіру	-3023
▁классов	-3024
▁коррект	-3025
▁күрделі	-3026
▁математ	-3027
▁метрика	-3028
▁мөлшері	-3029
▁наблюда	-3030
▁негізгі	-3031
▁необход	-3032
▁нередко	-3033
▁обработ	-3034
▁образом	-3035
▁объедин	-3036
▁олардың	-3037
▁пастбищ	-3038
▁перенос	-3039
▁периода	-3040
▁пользов	-3041
▁пресная	-3042
▁приклад	-3043
▁причины	-3044
▁результ	-3045
▁ресурсы	-3046
▁решение	-3047
▁свойств	-3048
▁сельско	-3049
▁сенімді	-3050
▁системы	-3051
▁склонах	-3052
▁событий	-3053
▁стабиль	-3054
▁структу	-3055
▁субальп	-3056
▁существ	-3057
▁таралым	-3058
▁төзімді	-3059
▁участки	-3060
▁уязвимы	-3061
▁формиру	-3062
▁целевой	-3063
▁шамадан	-3064
▁элемент	-3065
▁қалпына	-3066
▁өзгеруі	-3067
available	-3068
titudinal	-3069
versarial	-3070
ируемость	-3071
ритически	-3072
тастырады	-3073
▁capacity	-3074
▁climatic	-3075
▁critical	-3076
▁drainage	-3077
▁encoding	-3078
▁exposure	-3079
▁features	-3080
▁flexible	-3081
▁geologic	-3082
▁habitats	-3083
▁maintain	-3084
▁moisture	-3085
▁overland	-3086
▁physical	-3087
▁planning	-3088
▁practice	-3089
▁reducing	-3090
▁regional	-3091
▁surfaces	-3092
▁transmit	-3093
▁treeline	-3094
▁variable	-3095
▁zonation	-3096
▁Качество	-3097
▁Температ	-3098
▁айналымы	-3099
▁бассейна	-3100
▁булануды	-3101
▁бутстрэп	-3102
▁біріктір	-3103
▁градиент	-3104
▁давление	-3105
▁дисципли	-3106
▁заңдылық	-3107
▁информат	-3108
▁карбонат	-3109
▁качество	-3110
▁кешендер	-3111
▁конденса	-3112
▁линейных	-3113
▁масштабу	-3114
▁машинное	-3115
▁модельді	-3116
▁мұхиттар	-3117
▁обучении	-3118
▁отражающ	-3119
▁повышает	-3120
▁потребов	-3121
▁проверки	-3122
▁производ	-3123
▁реальную	-3124
▁регионов	-3125
▁системат	-3126
▁смещение	-3127
▁смещении	-3128
▁таралымы	-3129
▁тестовую	-3130
▁точность	-3131
▁туғызады	-3132
▁тығыздал	-3133
▁улучшает	-3134
▁упрощает	-3135
▁условиях	-3136
▁формиров	-3137
▁является	-3138
▁істейтін	-3139
айесовская	-3140
ероятность	-3141
ительность	-3142
▁classific	-3143
▁contribut	-3144
▁different	-3145
▁ecosystem	-3146
▁heterogen	-3147
▁magnitude	-3148
▁pipelines	-3149
▁processes	-3150
▁renewable	-3151
▁stability	-3152
▁structure	-3153
▁therefore	-3154
▁transport	-3155
▁анықтайды	-3156
▁атмосфера	-3157
▁бейімделу	-3158
▁белдеулік	-3159
▁дисперсию	-3160
▁жаңаратын	-3161
▁изменение	-3162
▁инженерии	-3163
▁инфильтра	-3164
▁использов	-3165
▁категория	-3166
▁күшейтеді	-3167
▁көрсеткіш	-3168
▁машиналық	-3169
▁модельдің	-3170
▁оптимизат	-3171
▁оттегінің	-3172
▁пайдаланы	-3173
▁параметры	-3174
▁поведения	-3175
▁подземных	-3176
▁последующ	-3177
▁применяют	-3178
▁приспособ	-3179
▁промышлен	-3180
▁регрессии	-3181
▁регрессия	-3182
▁способств	-3183
▁стоимости	-3184
▁стратегии	-3185
▁толықтыру	-3186
▁топыраққа	-3187
▁туындайды	-3188
▁чрезмерно	-3189
▁эвтрофика	-3190
▁эксплуата	-3191
▁өндірісте	-3192
▁өңірлерде	-3193
ularization	-3194
образование	-3195
ормализация	-3196
▁accelerate	-3197
▁additional	-3198
▁assessment	-3199
▁atmosphere	-3200
▁catchments	-3201
▁collection	-3202
▁continuous	-3203
▁deployment	-3204
▁downstream	-3205
▁elevations	-3206
▁evapotrans	-3207
▁formations	-3208
▁governance	-3209
▁irrigation	-3210
▁landscapes	-3211
▁objectives	-3212
▁prediction	-3213
▁production	-3214
▁reservoirs	-3215
▁streamflow	-3216
▁systematic	-3217
▁topography	-3218
▁validation	-3219
▁байланысты	-3220
▁белгілерді	-3221
▁вероятност	-3222
▁возобновля	-3223
▁жылдамдығы	-3224
▁использует	-3225
▁используют	-3226
▁комплексов	-3227
▁метрикалар	-3228
▁параметров	-3229
▁прибрежных	-3230
▁разработки	-3231
▁территорий	-3232
▁топырақтың	-3233
▁тренировоч	-3234
distribution	-3235
енерализация	-3236
▁agriculture	-3237
▁atmospheric	-3238
▁engineering	-3239
▁information	-3240
▁interaction	-3241
▁measurement	-3242
▁overfitting	-3243
▁percolation	-3244
▁reliability	-3245
▁seasonality	-3246
▁temperature	-3247
▁Температура	-3248
▁архитектуры	-3249
▁беткейлерде	-3250
▁выполняется	-3251
▁оптимизации	-3252
▁поверхности	-3253
▁поверхность	-3254
▁пользовател	-3255
▁представлен	-3256
▁пространств	-3257
▁ресурстарын	-3258
▁соотношение	-3259
▁түсіндірмел	-3260
▁тұрақтылығы	-3261
▁характерист	-3262
▁шаруашылығы	-3263
▁экологиялық	-3264
▁қолданылады	-3265
претируемость	-3266
▁accumulation	-3267
▁agricultural	-3268
▁biodiversity	-3269
▁construction	-3270
▁environments	-3271
▁Инфильтрация	-3272
▁используемое	-3273
▁определяется	-3274
▁предсказаний	-3275
▁салыстырмалы	-3276
▁сравнительно	-3277
▁транспирация	-3278
▁тұрақтылығын	-3279
▁environmental	-3280
▁Антропогендік	-3281
▁валидационную	-3282
▁дискриминация	-3283
▁заңдылықтарды	-3284
▁интерпретации	-3285
▁последователь	-3286
▁распределение	-3287
▁регуляризация	-3288
▁репрезентатив	-3289
▁статистикалық	-3290
▁экожүйелердің	-3291
▁закономерности	-3292
▁приспособления	-3293
▁растительности	-3294
▁статистической	-3295
▁чувствительных	-3296
▁қалыптастырады	-3297
);	-3298
.8	-3299
1-	-3300
80	-3301
OC	-3302
ag	-3303
aw	-3304
be	-3305
br	-3306
cl	-3307
fi	-3308
fy	-3309
gr	-3310
lf	-3311
mb	-3312
of	-3313
sl	-3314
ss	-3315
to	-3316
ty	-3317
wa	-3318
wd	-3319
Кл	-3320
бж	-3321
бц	-3322
гр	-3323
жы	-3324
зв	-3325
зм	-3326
зн	-3327
кү	-3328
кә	-3329
лм	-3330
мо	-3331
мс	-3332
ох	-3333
оя	-3334
оә	-3335
сч	-3336
тр	-3337
тт	-3338
уз	-3339
цы	-3340
ъё	-3341
эф	-3342
юб	-3343
юж	-3344
юі	-3345
ям	-3346
яу	-3347
ящ	-3348
ёж	-3349
ём	-3350
ёт	-3351
із	-3352
іш	-3353
қу	-3354
ңк	-3355
үз	-3356
ұс	-3357
ұт	-3358
өй	-3359
▁0	-3360
ads	-3361
ale	-3362
arc	-3363
bon	-3364
chm	-3365
den	-3366
eak	-3367
eep	-3368
end	-3369
erb	-3370
erm	-3371
han	-3372
hes	-3373
hic	-3374
ici	-3375
ier	-3376
ils	-3377
inc	-3378
key	-3379
lin	-3380
lux	-3381
med	-3382
nce	-3383
ors	-3384
osa	-3385
pis	-3386
red	-3387
rus	-3388
tal	-3389
tic	-3390
ual	-3391
ues	-3392
ura	-3393
ute	-3394
vac	-3395
vey	-3396
xid	-3397
Нел	-3398
Под	-3399
ism	-3400
its	-3401
len	-3402
nel	-3403
ods	-3404
opp	-3405
tit	-3406
алп	-3407
алу	-3408
асп	-3409
ату	-3410
ауы	-3411
бже	-3412
бол	-3413
бын	-3414
ваз	-3415
вая	-3416
вен	-3417
виг	-3418
вов	-3419
гко	-3420
год	-3421
гіш	-3422
дес	-3423
дро	-3424
дыр	-3425
дыс	-3426
ейс	-3427
ерп	-3428
еті	-3429
еци	-3430
жат	-3431
зал	-3432
зки	-3433
зно	-3434
зот	-3435
зра	-3436
имо	-3437
ифф	-3438
кен	-3439
кра	-3440
кро	-3441
кта	-3442
күш	-3443
лас	-3444
лив	-3445
лит	-3446
лищ	-3447
лли	-3448
лог	-3449
лос	-3450
лін	-3451
мед	-3452
мно	-3453
мог	-3454
нап	-3455
нар	-3456
нау	-3457
нес	-3458
нет	-3459
ноч	-3460
овп	-3461
одс	-3462
ози	-3463
оин	-3464
оки	-3465
олж	-3466
оне	-3467
ооб	-3468
ори	-3469
орс	-3470
оты	-3471
оци	-3472
очт	-3473
пат	-3474
пит	-3475
раг	-3476
раз	-3477
рее	-3478
рес	-3479
реч	-3480
рид	-3481
рин	-3482
рог	-3483
ром	-3484
руы	-3485
рыб	-3486
рый	-3487
рын	-3488
сро	-3489
сік	-3490
сір	-3491
сүй	-3492
тау	-3493
тек	-3494
тел	-3495
тно	-3496
тов	-3497
точ	-3498
тра	-3499
aun	-3500
ced	-3501
ory	-3502
sto	-3503
tle	-3504
uld	-3505
гру	-3506
дав	-3507
емі	-3508
зак	-3509
кую	-3510
нее	-3511
пия	-3512
рки	-3513
рот	-3514
түр	-3515
уші	-3516
фии	-3517
хра	-3518
чит	-3519
чищ	-3520
шел	-3521
шен	-3522
ших	-3523
шла	-3524
ыла	-3525
ыше	-3526
ёме	-3527
ёст	-3528
ігі	-3529
іст	-3530
ғар	-3531
ғау	-3532
қсы	-3533
қын	-3534
▁En	-3535
▁Fe	-3536
▁ab	-3537
▁ap	-3538
▁dr	-3539
▁it	-3540
▁mu	-3541
▁ph	-3542
▁po	-3543
▁sm	-3544
▁te	-3545
▁tr	-3546
▁Аб	-3547
▁Ағ	-3548
▁Ги	-3549
▁Ми	-3550
▁Он	-3551
▁ақ	-3552
▁вв	-3553
▁ве	-3554
▁во	-3555
▁вс	-3556
▁ду	-3557
▁же	-3558
▁ит	-3559
▁ку	-3560
▁ле	-3561
▁ол	-3562
▁пл	-3563
▁сг	-3564
▁сд	-3565
▁се	-3566
▁сх	-3567
▁тщ	-3568
▁ті	-3569
▁уд	-3570
▁хи	-3571
▁шо	-3572
▁шы	-3573
▁қу	-3574
▁үз	-3575
aled	-3576
arch	-3577
ared	-3578
arri	-3579
crib	-3580
ects	-3581
elay	-3582
enge	-3583
even	-3584
gets	-3585
hedu	-3586
hion	-3587
ides	-3588
ills	-3589
imiz	-3590
ings	-3591
itro	-3592
ived	-3593
iven	-3594
king	-3595
lean	-3596
ling	-3597
lope	-3598
ming	-3599
arg	-3600
ark	-3601
arn	-3602
gro	-3603
the	-3604
Сор	-3605
аму	-3606
зақ	-3607
зии	-3608
коп	-3609
лей	-3610
лше	-3611
них	-3612
уке	-3613
ғид	-3614
▁St	-3615
▁fl	-3616
▁Ар	-3617
▁По	-3618
also	-3619
ield	-3620
loom	-3621
odic	-3622
orit	-3623
orms	-3624
orph	-3625
orth	-3626
pari	-3627
pert	-3628
phor	-3629
pins	-3630
pond	-3631
rawd	-3632
rial	-3633
roph	-3634
ropo	-3635
sequ	-3636
sing	-3637
tion	-3638
udit	-3639
ydro	-3640
ysis	-3641
авод	-3642
алаң	-3643
алей	-3644
ализ	-3645
анды	-3646
анию	-3647
ансы	-3648
арды	-3649
балы	-3650
боем	-3651
боль	-3652
боре	-3653
висе	-3654
гоза	-3655
дает	-3656
дени	-3657
дные	-3658
дырм	-3659
евер	-3660
евых	-3661
еген	-3662
ейін	-3663
екел	-3664
екты	-3665
елді	-3666
елей	-3667
ерен	-3668
ерін	-3669
есін	-3670
етов	-3671
етри	-3672
жима	-3673
зано	-3674
зков	-3675
знен	-3676
зует	-3677
иями	-3678
кими	-3679
крок	-3680
кізб	-3681
леге	-3682
леңк	-3683
лшеу	-3684
льфи	-3685
ляет	-3686
лікт	-3687
мату	-3688
мдер	-3689
мных	-3690
ними	-3691
нной	-3692
ноту	-3693
нями	-3694
овор	-3695
одно	-3696
ожде	-3697
озво	-3698
олых	-3699
Bas	-3700
ash	-3701
has	-3702
ned	-3703
til	-3704
ава	-3705
аци	-3706
бли	-3707
его	-3708
йтп	-3709
леу	-3710
лиш	-3711
лые	-3712
май	-3713
ота	-3714
оәр	-3715
яде	-3716
ёто	-3717
ңай	-3718
ңгі	-3719
▁bi	-3720
ases	-3721
atis	-3722
enis	-3723
isms	-3724
rror	-3725
vent	-3726
xies	-3727
айлы	-3728
аций	-3729
емли	-3730
ками	-3731
омби	-3732
опас	-3733
оров	-3734
орыт	-3735
осле	-3736
оточ	-3737
очво	-3738
пную	-3739
почт	-3740
птау	-3741
рами	-3742
рану	-3743
рать	-3744
рибе	-3745
рист	-3746
рому	-3747
росл	-3748
ртіп	-3749
руго	-3750
рыта	-3751
сері	-3752
скей	-3753
спам	-3754
стік	-3755
тағы	-3756
тому	-3757
ттал	-3758
тығы	-3759
түсу	-3760
удың	-3761
ужны	-3762
феры	-3763
фиол	-3764
фици	-3765
щных	-3766
ылау	-3767
ылық	-3768
ымша	-3769
ынан	-3770
ыста	-3771
ысып	-3772
ётом	-3773
імін	-3774
інге	-3775
ғаны	-3776
ғына	-3777
қсар	-3778
қыту	-3779
▁Cro	-3780
▁Dep	-3781
▁Gro	-3782
▁ROC	-3783
▁Reg	-3784
▁Tre	-3785
▁bal	-3786
▁bed	-3787
▁beg	-3788
▁ben	-3789
▁bud	-3790
▁car	-3791
▁cer	-3792
▁cir	-3793
▁cur	-3794
▁der	-3795
▁dim	-3796
▁ens	-3797
▁eut	-3798
▁far	-3799
1».	-3800
bur	-3801
eds	-3802
els	-3803
Для	-3804
буч	-3805
гуі	-3806
лап	-3807
лоб	-3808
обр	-3809
общ	-3810
обы	-3811
щад	-3812
ырм	-3813
ысы	-3814
ься	-3815
▁ut	-3816
▁чт	-3817
▁өс	-3818
eper	-3819
ined	-3820
tect	-3821
uter	-3822
vels	-3823
былы	-3824
гілі	-3825
ейся	-3826
кого	-3827
лабо	-3828
руют	-3829
циях	-3830
щадь	-3831
ылға	-3832
▁end	-3833
▁fis	-3834
▁fut	-3835
▁has	-3836
▁lat	-3837
▁new	-3838
▁one	-3839
▁oth	-3840
▁ove	-3841
▁rat	-3842
▁rel	-3843
▁sam	-3844
▁sed	-3845
▁spl	-3846
▁squ	-3847
▁sta	-3848
▁Бір	-3849
▁Доп	-3850
▁Инф	-3851
▁Пос	-3852
▁Пре	-3853
▁Про	-3854
▁Сыз	-3855
▁Сөй	-3856
▁бал	-3857
▁баш	-3858
▁вст	-3859
▁еск	-3860
▁ест	-3861
▁ету	-3862
▁жар	-3863
▁жас	-3864
▁жат	-3865
▁жаю	-3866
▁жол	-3867
▁жәш	-3868
▁зат	-3869
▁защ	-3870
▁зем	-3871
▁ина	-3872
▁исч	-3873
▁кем	-3874
▁кең	-3875
▁көл	-3876
▁лет	-3877
▁мех	-3878
▁мно	-3879
▁мін	-3880
▁нек	-3881
▁обл	-3882
▁обн	-3883
▁обу	-3884
▁оки	-3885
▁ора	-3886
▁пен	-3887
▁поэ	-3888
▁пут	-3889
▁рай	-3890
▁рек	-3891
▁рыб	-3892
▁рых	-3893
▁сай	-3894
▁соп	-3895
▁сос	-3896
▁соч	-3897
▁тал	-3898
▁тем	-3899
cid	-3900
pri	-3901
rub	-3902
воз	-3903
еку	-3904
иму	-3905
ғыр	-3906
chit	-3907
eity	-3908
hysi	-3909
utri	-3910
вере	-3911
емым	-3912
ерев	-3913
олюб	-3914
оряд	-3915
слож	-3916
тқан	-3917
утым	-3918
▁bod	-3919
▁yet	-3920
▁зав	-3921
▁зам	-3922
▁инф	-3923
▁омы	-3924
▁тот	-3925
▁тра	-3926
▁усп	-3927
▁ход	-3928
▁эти	-3929
▁эфф	-3930
▁құқ	-3931
▁ұқс	-3932
▁өсі	-3933
▁өте	-3934
adapt	-3935
ained	-3936
ances	-3937
andle	-3938
andom	-3939
aring	-3940
astal	-3941
atist	-3942
bserv	-3943
cycle	-3944
dicat	-3945
dress	-3946
eding	-3947
enses	-3948
entil	-3949
erals	-3950
icals	-3951
imize	-3952
istry	-3953
ition	-3954
izing	-3955
label	-3956
lends	-3957
lfide	-3958
lying	-3959
omata	-3960
onent	-3961
osits	-3962
osity	-3963
races	-3964
rings	-3965
slope	-3966
stood	-3967
urism	-3968
ution	-3969
valan	-3970
value	-3971
ximal	-3972
ynthe	-3973
Сорти	-3974
авших	-3975
алдан	-3976
алдық	-3977
ально	-3978
анием	-3979
аниям	-3980
ацион	-3981
аштар	-3982
ающем	-3983
бором	-3984
вания	-3985
гонки	-3986
града	-3987
дайда	-3988
дание	-3989
дануы	-3990
дарды	-3991
дейді	-3992
дение	-3993
дерде	-3994
дымен	-3995
дықты	-3996
діріс	-3997
ейтіп	-3998
емыми	-3999
chy	-4000
ose	-4001
леп	-4002
ющи	-4003
ches	-4004
emis	-4005
late	-4006
leak	-4007
like	-4008
ores	-4009
osen	-4010
rive	-4011
алых	-4012
асты	-4013
беуі	-4014
вающ	-4015
кото	-4016
лено	-4017
осна	-4018
осст	-4019
сады	-4020
сами	-4021
сной	-4022
тной	-4023
ікте	-4024
▁Its	-4025
▁aff	-4026
▁mem	-4027
▁wet	-4028
▁Гра	-4029
▁вто	-4030
▁люд	-4031
▁нед	-4032
▁оты	-4033
▁тон	-4034
▁шал	-4035
ctive	-4036
gment	-4037
inear	-4038
istor	-4039
lowly	-4040
plain	-4041
Дрейф	-4042
алыми	-4043
ектеп	-4044
елющи	-4045
ерасп	-4046
ереді	-4047
ериал	-4048
ерсон	-4049
еских	-4050
есная	-4051
ество	-4052
естік	-4053
етеді	-4054
жауын	-4055
залау	-4056
зовая	-4057
ивать	-4058
икалы	-4059
ислен	-4060
истку	-4061
исход	-4062
иффуз	-4063
ичную	-4064
ичные	-4065
когда	-4066
ларда	-4067
ларды	-4068
лении	-4069
летін	-4070
лігін	-4071
лінуі	-4072
майды	-4073
менно	-4074
метка	-4075
налом	-4076
ндірі	-4077
ников	-4078
новой	-4079
обные	-4080
одами	-4081
орное	-4082
орода	-4083
отных	-4084
отоки	-4085
отреб	-4086
оғары	-4087
ражен	-4088
ранит	-4089
редит	-4090
режен	-4091
ровки	-4092
ройки	-4093
ругой	-4094
садке	-4095
спози	-4096
стоят	-4097
сырой	-4098
сінше	-4099
lap	-4100
исы	-4101
йір	-4102
кло	-4103
озғ	-4104
сыз	-4105
ғаз	-4106
▁As	-4107
▁Le	-4108
▁Ne	-4109
apor	-4110
draw	-4111
еркә	-4112
ивна	-4113
иясы	-4114
йірш	-4115
луын	-4116
седі	-4117
ъект	-4118
▁asp	-4119
▁cus	-4120
▁sci	-4121
▁выч	-4122
▁жағ	-4123
▁тез	-4124
▁тех	-4125
aster	-4126
falls	-4127
gener	-4128
idden	-4129
ident	-4130
ivity	-4131
lapse	-4132
uards	-4133
аруын	-4134
аулар	-4135
ивных	-4136
идные	-4137
скори	-4138
сымен	-4139
такта	-4140
тасын	-4141
теген	-4142
терге	-4143
товой	-4144
тінде	-4145
улеге	-4146
урной	-4147
ушков	-4148
ходят	-4149
храни	-4150
цияны	-4151
цияға	-4152
чищен	-4153
чного	-4154
чёрки	-4155
шінде	-4156
ышқыл	-4157
яного	-4158
яющих	-4159
іледі	-4160
іпсіз	-4161
ғанда	-4162
қалып	-4163
қағаз	-4164
қынын	-4165
үруін	-4166
ұрлық	-4167
ұсқал	-4168
▁Cons	-4169
▁acco	-4170
▁acid	-4171
▁alig	-4172
▁alte	-4173
▁alwa	-4174
▁anal	-4175
▁ante	-4176
▁beco	-4177
▁best	-4178
▁cent	-4179
▁circ	-4180
▁conc	-4181
▁cond	-4182
▁conf	-4183
▁conn	-4184
▁debr	-4185
▁disp	-4186
▁epis	-4187
▁gent	-4188
▁hypo	-4189
▁indu	-4190
▁leak	-4191
▁oxid	-4192
▁peak	-4193
▁phos	-4194
▁pore	-4195
▁port	-4196
▁radi	-4197
▁rely	-4198
▁resh	-4199
lay	-4200
аев	-4201
лых	-4202
рып	-4203
тие	-4204
тых	-4205
тің	-4206
mpro	-4207
ough	-4208
звол	-4209
имой	-4210
неше	-4211
ноте	-4212
овых	-4213
орых	-4214
тиво	-4215
тиды	-4216
ыточ	-4217
▁Inf	-4218
▁emp	-4219
▁wid	-4220
▁буы	-4221
▁дня	-4222
▁дых	-4223
▁көб	-4224
▁көп	-4225
orith	-4226
undra	-4227
енном	-4228
льдер	-4229
менти	-4230
основ	-4231
полож	-4232
рақұр	-4233
ровой	-4234
▁play	-4235
▁rest	-4236
▁samp	-4237
▁stim	-4238
▁such	-4239
▁them	-4240
▁then	-4241
▁they	-4242
▁thin	-4243
▁this	-4244
▁tree	-4245
▁trig	-4246
▁webs	-4247
▁whic	-4248
▁will	-4249
▁Даму	-4250
▁Оның	-4251
▁Стро	-4252
▁алын	-4253
▁атал	-4254
▁ауыт	-4255
▁ағып	-4256
▁база	-4257
▁батч	-4258
▁бағы	-4259
▁бола	-4260
▁быту	-4261
▁верх	-4262
▁вред	-4263
▁выби	-4264
▁выст	-4265
▁дням	-4266
▁екен	-4267
▁ерек	-4268
▁жалп	-4269
▁жапы	-4270
▁жыны	-4271
▁жёст	-4272
▁жүру	-4273
▁изуч	-4274
▁инте	-4275
▁итог	-4276
▁керм	-4277
▁күнг	-4278
▁ласт	-4279
▁леса	-4280
▁меры	-4281
▁мест	-4282
▁нака	-4283
▁наст	-4284
▁неоп	-4285
▁омыр	-4286
▁оның	-4287
▁охра	-4288
▁пара	-4289
▁плот	-4290
▁поис	-4291
▁поле	-4292
▁полю	-4293
▁поро	-4294
▁разв	-4295
▁реки	-4296
▁салу	-4297
▁салқ	-4298
▁само	-4299
xia	-4300
изу	-4301
луі	-4302
▁no	-4303
comp	-4304
gers	-4305
seen	-4306
ulic	-4307
дану	-4308
имый	-4309
сачи	-4310
стые	-4311
сіне	-4312
уіне	-4313
фора	-4314
ығыл	-4315
▁mig	-4316
▁Осы	-4317
▁слу	-4318
▁тұз	-4319
▁Қос	-4320
aunal	-4321
ersal	-4322
lages	-4323
lowed	-4324
point	-4325
дыдан	-4326
зілуі	-4327
ивная	-4328
мация	-4329
метки	-4330
метін	-4331
нықты	-4332
ресса	-4333
ствен	-4334
ценки	-4335
▁most	-4336
▁norm	-4337
▁only	-4338
▁rain	-4339
▁rate	-4340
▁used	-4341
▁засу	-4342
▁неск	-4343
▁одан	-4344
▁сапа	-4345
▁слия	-4346
▁совп	-4347
▁солё	-4348
▁стол	-4349
▁сточ	-4350
▁суда	-4351
▁сход	-4352
▁тала	-4353
▁тени	-4354
▁тері	-4355
▁типа	-4356
▁тоқт	-4357
▁тран	-4358
▁түск	-4359
▁уточ	-4360
▁учит	-4361
▁форм	-4362
▁числ	-4363
▁шөпт	-4364
▁этом	-4365
▁қабі	-4366
▁қозғ	-4367
▁қоры	-4368
▁құны	-4369
▁үнем	-4370
andard	-4371
aneous	-4372
argets	-4373
arming	-4374
ategor	-4375
ativen	-4376
atment	-4377
chmark	-4378
encing	-4379
ewable	-4380
ewater	-4381
grated	-4382
hanges	-4383
heries	-4384
ifying	-4385
ilarly	-4386
iments	-4387
inates	-4388
ionate	-4389
istent	-4390
isturb	-4391
linear	-4392
luding	-4393
mbined	-4394
opping	-4395
orable	-4396
orting	-4397
pplies	-4398
reduce	-4399
ake	-4400
ике	-4401
мый	-4402
ске	-4403
▁На	-4404
▁Ол	-4405
▁От	-4406
ants	-4407
arth	-4408
ized	-4409
melt	-4410
whel	-4411
дели	-4412
ерав	-4413
лғал	-4414
▁dam	-4415
▁sho	-4416
▁Оны	-4417
▁сиг	-4418
▁смы	-4419
▁тік	-4420
▁хим	-4421
горий	-4422
дырақ	-4423
егмен	-4424
еңіне	-4425
келкі	-4426
матри	-4427
ротив	-4428
стары	-4429
ствию	-4430
яться	-4431
▁Once	-4432
▁appl	-4433
▁inte	-4434
▁lake	-4435
▁prec	-4436
▁rise	-4437
▁sequ	-4438
▁size	-4439
▁азды	-4440
▁беті	-4441
▁жасы	-4442
▁көрі	-4443
▁опис	-4444
▁свод	-4445
▁соци	-4446
▁суши	-4447
▁тасқ	-4448
▁түрі	-4449
osaics	-4450
parian	-4451
rophic	-4452
rusion	-4453
sphere	-4454
stakes	-4455
tainty	-4456
twater	-4457
undant	-4458
unting	-4459
ximate	-4460
Горные	-4461
Интерф	-4462
альный	-4463
ановку	-4464
артады	-4465
арушен	-4466
атаған	-4467
ацияға	-4468
ашылық	-4469
баланс	-4470
былысы	-4471
вающая	-4472
венное	-4473
деляет	-4474
дердің	-4475
деседі	-4476
дырады	-4477
дырмау	-4478
дықтар	-4479
егінен	-4480
елений	-4481
емости	-4482
ениями	-4483
ерімен	-4484
забора	-4485
зацией	-4486
зақмер	-4487
ивации	-4488
инного	-4489
ищение	-4490
йтпесе	-4491
кольку	-4492
ланады	-4493
ледств	-4494
лением	-4495
ленных	-4496
лучаев	-4497
льному	-4498
лігіне	-4499
oad	-4500
лый	-4501
▁Ба	-4502
▁Не	-4503
elev	-4504
rock	-4505
test	-4506
umes	-4507
vals	-4508
ающе	-4509
лығы	-4510
рман	-4511
сбор	-4512
ығуы	-4513
▁For	-4514
▁Сов	-4515
▁биз	-4516
▁бұл	-4517
▁зер	-4518
▁оқу	-4519
aging	-4520
eated	-4521
looms	-4522
where	-4523
ающей	-4524
ающий	-4525
нению	-4526
нымал	-4527
равов	-4528
упает	-4529
▁Road	-4530
▁Пайд	-4531
▁бөлі	-4532
▁жеке	-4533
▁морс	-4534
▁несу	-4535
▁ниже	-4536
▁указ	-4537
hasize	-4538
olumes	-4539
итания	-4540
ленной	-4541
ліктің	-4542
никнов	-4543
носных	-4544
няемых	-4545
ование	-4546
оворят	-4547
одских	-4548
опырақ	-4549
остери	-4550
осферы	-4551
отвращ	-4552
питыва	-4553
равной	-4554
ренные	-4555
ридной	-4556
рлерді	-4557
ровать	-4558
родолж	-4559
рослей	-4560
ростеп	-4561
рывает	-4562
саланы	-4563
слении	-4564
талады	-4565
терілу	-4566
тқасыз	-4567
фиялық	-4568
ческой	-4569
чность	-4570
ылаған	-4571
ылымын	-4572
ындағы	-4573
ғындар	-4574
қарған	-4575
үзінде	-4576
▁Above	-4577
▁Cross	-4578
▁Cycle	-4579
▁Error	-4580
▁Glaci	-4581
▁Impro	-4582
▁Produ	-4583
▁Where	-4584
▁activ	-4585
▁algal	-4586
▁barri	-4587
▁blood	-4588
▁build	-4589
▁cases	-4590
▁cause	-4591
▁centr	-4592
▁clean	-4593
▁conte	-4594
▁displ	-4595
▁drier	-4596
▁drink	-4597
▁drive	-4598
▁dropo	-4599
ols	-4600
зию	-4601
чём	-4602
ight	-4603
olar	-4604
stry	-4605
ақыт	-4606
лгін	-4607
ющие	-4608
▁ess	-4609
▁fol	-4610
▁жиі	-4611
cessi	-4612
eflow	-4613
erves	-4614
xcess	-4615
блемы	-4616
ринге	-4617
рость	-4618
садки	-4619
филей	-4620
ыштар	-4621
▁anot	-4622
▁capt	-4623
▁less	-4624
▁subs	-4625
▁мұна	-4626
▁наск	-4627
▁поск	-4628
▁сенс	-4629
▁этот	-4630
evenly	-4631
orates	-4632
reases	-4633
roduce	-4634
Вектор	-4635
атация	-4636
елерін	-4637
күлгін	-4638
юдений	-4639
▁Solar	-4640
▁along	-4641
▁early	-4642
▁estim	-4643
▁field	-4644
▁flash	-4645
▁forms	-4646
▁fresh	-4647
▁hydra	-4648
▁incor	-4649
▁infer	-4650
▁large	-4651
▁learn	-4652
▁modes	-4653
▁offer	-4654
▁rates	-4655
▁regul	-4656
▁scarc	-4657
▁shrub	-4658
▁south	-4659
▁subal	-4660
▁subst	-4661
▁these	-4662
▁tools	-4663
▁truth	-4664
▁Испар	-4665
▁Почво	-4666
▁азота	-4667
▁айтар	-4668
▁айырм	-4669
▁алады	-4670
▁балық	-4671
▁барыс	-4672
▁басты	-4673
▁важно	-4674
▁вверх	-4675
▁водно	-4676
▁водой	-4677
▁водоп	-4678
▁время	-4679
▁вырос	-4680
▁дейін	-4681
▁долго	-4682
▁дорог	-4683
▁дости	-4684
▁дәлді	-4685
▁емест	-4686
▁енуін	-4687
▁жазда	-4688
▁жазық	-4689
▁жазғы	-4690
▁жалаң	-4691
▁жерде	-4692
▁засол	-4693
▁испыт	-4694
▁какая	-4695
▁келуі	-4696
▁комби	-4697
▁көшіп	-4698
▁линия	-4699
comm	-4700
leys	-4701
sump	-4702
vial	-4703
ветр	-4704
еңіс	-4705
суін	-4706
ыпас	-4707
дайым	-4708
ешным	-4709
ретіп	-4710
рости	-4711
усред	-4712
▁Ecos	-4713
▁user	-4714
▁адам	-4715
▁етіп	-4716
▁еңіс	-4717
▁собл	-4718
▁қоны	-4719
common	-4720
ctured	-4721
ensive	-4722
ivores	-4723
liance	-4724
luvial	-4725
Баланс	-4726
валида	-4727
едение	-4728
старды	-4729
▁basic	-4730
▁chall	-4731
▁north	-4732
▁trace	-4733
▁мекен	-4734
▁менее	-4735
▁много	-4736
▁мәсел	-4737
▁насел	-4738
▁наход	-4739
▁нерав	-4740
▁новым	-4741
▁нәтиж	-4742
▁обнов	-4743
▁означ	-4744
▁орнал	-4745
▁отдав	-4746
▁отлож	-4747
▁очень	-4748
▁павод	-4749
▁пайда	-4750
▁перем	-4751
▁полос	-4752
▁помог	-4753
▁попол	-4754
▁после	-4755
▁почву	-4756
▁прево	-4757
▁реали	-4758
▁регла	-4759
▁сбоем	-4760
▁связи	-4761
▁сглаж	-4762
▁сетях	-4763
▁склон	-4764
▁скрыт	-4765
▁слабо	-4766
▁снизи	-4767
▁собой	-4768
▁созда	-4769
▁среду	-4770
▁стала	-4771
▁стека	-4772
▁суару	-4773
▁суына	-4774
▁тауда	-4775
▁тесты	-4776
▁техно	-4777
▁типич	-4778
▁точка	-4779
▁тірек	-4780
▁түсіп	-4781
▁тұзды	-4782
▁тұрақ	-4783
▁уақыт	-4784
▁увлаж	-4785
▁уступ	-4786
▁форма	-4787
▁части	-4788
▁чтобы	-4789
▁қалай	-4790
▁қаржы	-4791
▁қатты	-4792
▁қаупі	-4793
▁қорек	-4794
▁қыста	-4795
▁қысым	-4796
▁үздік	-4797
▁ұқсас	-4798
▁әлсіз	-4799
cay	-4800
йту	-4801
шое	-4802
▁Se	-4803
▁So	-4804
▁up	-4805
▁Эк	-4806
▁ұй	-4807
blem	-4808
eget	-4809
меру	-4810
▁Con	-4811
▁Dis	-4812
▁cry	-4813
burst	-4814
ology	-4815
пақты	-4816
ённый	-4817
▁Data	-4818
▁food	-4819
▁meth	-4820
▁бөлш	-4821
▁выпа	-4822
▁жылу	-4823
▁попа	-4824
▁саяс	-4825
alists	-4826
балану	-4827
бжения	-4828
гается	-4829
горитм	-4830
▁Soils	-4831
▁decay	-4832
▁slope	-4833
▁vapor	-4834
▁Живот	-4835
▁Орман	-4836
▁задач	-4837
▁защищ	-4838
▁сезім	-4839
▁специ	-4840
▁қарсы	-4841
▁қорын	-4842
adapted	-4843
adwater	-4844
arginal	-4845
astoral	-4846
cessing	-4847
cessive	-4848
ectural	-4849
ierarch	-4850
ignment	-4851
orithms	-4852
paramet	-4853
raction	-4854
raining	-4855
reation	-4856
ressing	-4857
ression	-4858
tecting	-4859
tenance	-4860
tensive	-4861
titions	-4862
ulation	-4863
venting	-4864
Атрибут	-4865
Датасет	-4866
аваемый	-4867
алыстар	-4868
атность	-4869
ациялық	-4870
балансе	-4871
биіктік	-4872
большое	-4873
былысты	-4874
былғаны	-4875
водными	-4876
возраст	-4877
готовку	-4878
дельное	-4879
дисперс	-4880
ерісіне	-4881
есмотря	-4882
еспозво	-4883
етанием	-4884
жесінде	-4885
здықтар	-4886
зненные	-4887
ивается	-4888
ивности	-4889
ивотные	-4890
ительно	-4891
ическим	-4892
ическом	-4893
ичество	-4894
ктердің	-4895
лизации	-4896
ложение	-4897
лігімен	-4898
номерно	-4899
ором	-4900
утам	-4901
▁мир	-4902
lands	-4903
rends	-4904
Таулы	-4905
есілі	-4906
ывают	-4907
імсіз	-4908
▁path	-4909
▁yiel	-4910
▁Комп	-4911
▁Нәти	-4912
▁деят	-4913
▁коэф	-4914
▁күші	-4915
▁себе	-4916
▁ығыс	-4917
▁өнім	-4918
▁өтіп	-4919
мыстық	-4920
отбора	-4921
фордың	-4922
▁hyper	-4923
▁input	-4924
▁space	-4925
▁Интер	-4926
▁желге	-4927
▁зонах	-4928
▁излуч	-4929
▁инфор	-4930
▁одной	-4931
▁подъё	-4932
▁тасым	-4933
екарасы	-4934
ируемым	-4935
однород	-4936
ождевой	-4937
олькими	-4938
оносные	-4939
орозков	-4940
отности	-4941
оцирует	-4942
оченный	-4943
полняет	-4944
ранение	-4945
ранится	-4946
растает	-4947
ределён	-4948
ременно	-4949
ромиссе	-4950
ронутым	-4951
руктуры	-4952
рытиями	-4953
серіске	-4954
спарлау	-4955
стыруға	-4956
терінде	-4957
ттейтін	-4958
фициент	-4959
ылғалды	-4960
ышенных	-4961
язнение	-4962
яющейся	-4963
ённость	-4964
ғалатын	-4965
ұрлыққа	-4966
▁Beyond	-4967
▁Faunal	-4968
▁Linear	-4969
▁absent	-4970
▁applic	-4971
▁archit	-4972
▁arrive	-4973
▁assemb	-4974
▁become	-4975
▁beyond	-4976
▁blends	-4977
▁blooms	-4978
▁carbon	-4979
▁common	-4980
▁covers	-4981
▁create	-4982
▁declin	-4983
▁decomp	-4984
▁determ	-4985
▁dispar	-4986
▁dispro	-4987
▁domain	-4988
▁effici	-4989
▁exists	-4990
▁forage	-4991
▁future	-4992
▁global	-4993
▁highly	-4994
▁induce	-4995
▁inland	-4996
▁intens	-4997
▁landsl	-4998
▁magnif	-4999
кси	-5000
bust	-5001
hern	-5002
еулі	-5003
▁aug	-5004
▁ice	-5005
▁opt	-5006
▁кеу	-5007
▁қою	-5008
ively	-5009
буфер	-5010
говой	-5011
ылдап	-5012
▁Sust	-5013
▁phen	-5014
▁wast	-5015
▁when	-5016
▁көбе	-5017
abling	-5018
велика	-5019
иканың	-5020
поступ	-5021
прокси	-5022
▁separ	-5023
▁share	-5024
▁замед	-5025
▁сетке	-5026
▁әлсір	-5027
orthern	-5028
зволяют	-5029
ивающий	-5030
ислений	-5031
риорные	-5032
▁limits	-5033
▁making	-5034
▁metals	-5035
▁obtain	-5036
▁oceans	-5037
▁planet	-5038
▁plants	-5039
▁porous	-5040
▁prepar	-5041
▁prepro	-5042
▁privac	-5043
▁random	-5044
▁recall	-5045
▁relies	-5046
▁robust	-5047
▁saline	-5048
▁schedu	-5049
▁season	-5050
▁stages	-5051
▁stress	-5052
▁summer	-5053
▁tables	-5054
▁tundra	-5055
▁values	-5056
▁warmer	-5057
▁weight	-5058
▁winter	-5059
▁yields	-5060
▁Баланс	-5061
▁Важную	-5062
▁Водные	-5063
▁Осадки	-5064
▁Табиғи	-5065
▁азаяды	-5066
▁алудың	-5067
▁атайды	-5068
▁бизнес	-5069
▁биолог	-5070
▁бывают	-5071
▁быстро	-5072
▁важнее	-5073
▁влияют	-5074
▁водоне	-5075
▁водоём	-5076
▁высоко	-5077
▁высоте	-5078
▁высоты	-5079
▁гибким	-5080
▁глубже	-5081
▁горных	-5082
▁давать	-5083
▁диффуз	-5084
▁долгов	-5085
▁должен	-5086
▁дообуч	-5087
▁дублей	-5088
▁екенін	-5089
▁естест	-5090
▁жатады	-5091
▁желдің	-5092
▁жердің	-5093
▁жолмен	-5094
▁жіктеу	-5095
▁задава	-5096
▁запасы	-5097
▁кейбір	-5098
▁кодтау	-5099
▁Сох	-5100
мысле	-5101
нарлы	-5102
удағы	-5103
яющая	-5104
яющее	-5105
▁Alth	-5106
▁held	-5107
▁влаж	-5108
▁года	-5109
▁горы	-5110
▁жұқа	-5111
oxygen	-5112
urable	-5113
емость	-5114
меттік	-5115
мысалы	-5116
сіптік	-5117
ческим	-5118
ческих	-5119
▁final	-5120
▁flows	-5121
▁raise	-5122
▁Артық	-5123
▁Дерек	-5124
▁Оқыту	-5125
▁айқын	-5126
▁логов	-5127
▁остав	-5128
▁редко	-5129
▁тыңай	-5130
▁өңдеу	-5131
alizing	-5132
ameters	-5133
drawals	-5134
veyance	-5135
ельство	-5136
лемінде	-5137
ределах	-5138
▁chosen	-5139
▁differ	-5140
▁longer	-5141
▁modify	-5142
▁patchy	-5143
▁ансамб	-5144
▁артқан	-5145
▁дәлдік	-5146
▁заттар	-5147
▁климат	-5148
▁контек	-5149
▁концен	-5150
▁крутых	-5151
▁кіреді	-5152
▁кіріст	-5153
▁күндер	-5154
▁логике	-5155
▁малоин	-5156
▁микрок	-5157
▁мощных	-5158
▁мұздық	-5159
▁мәдени	-5160
▁наветр	-5161
▁недели	-5162
▁некото	-5163
▁низкой	-5164
▁новому	-5165
▁океани	-5166
▁ортаға	-5167
▁отдель	-5168
▁оценка	-5169
▁очищен	-5170
▁ошибки	-5171
▁персон	-5172
▁подвет	-5173
▁порист	-5174
▁прогно	-5175
▁програ	-5176
▁проект	-5177
▁прошла	-5178
▁путями	-5179
▁работа	-5180
▁раздел	-5181
▁разные	-5182
▁рацион	-5183
▁регули	-5184
▁режимі	-5185
▁саласы	-5186
▁себебі	-5187
▁склоны	-5188
▁служат	-5189
▁смысле	-5190
▁снижая	-5191
▁солнеч	-5192
▁сосред	-5193
▁сулары	-5194
▁сіңуді	-5195
▁талыми	-5196
▁тестке	-5197
▁точкой	-5198
▁тёплые	-5199
AUC	-5200
гих	-5201
loss	-5202
далм	-5203
иней	-5204
▁fav	-5205
▁Нап	-5206
▁теж	-5207
▁физ	-5208
▁ыңғ	-5209
детті	-5210
драға	-5211
тасуы	-5212
тынуы	-5213
▁hard	-5214
▁loss	-5215
▁Азот	-5216
▁моря	-5217
antial	-5218
antity	-5219
porate	-5220
атымен	-5221
атының	-5222
режесі	-5223
талдық	-5224
▁Human	-5225
▁shape	-5226
▁uncer	-5227
▁биора	-5228
▁жүруі	-5229
grazing	-5230
Нелиней	-5231
ациясын	-5232
далмаса	-5233
знообра	-5234
равовые	-5235
▁extent	-5236
▁Эксплу	-5237
▁входам	-5238
▁көлеңк	-5239
▁методы	-5240
▁многих	-5241
▁оценок	-5242
▁тёплых	-5243
▁түрлер	-5244
▁түскен	-5245
▁түсуін	-5246
▁уверен	-5247
▁упоряд	-5248
▁ускори	-5249
▁устойч	-5250
▁частей	-5251
▁частый	-5252
▁шешуші	-5253
▁шуылға	-5254
▁эколог	-5255
▁қабаты	-5256
▁қалыпт	-5257
▁қалған	-5258
▁қандай	-5259
▁қатына	-5260
▁қысқар	-5261
▁құрлық	-5262
▁үнемді	-5263
▁әсерге	-5264
▁Өндірі	-5265
▁өлшемі	-5266
▁өнеркә	-5267
▁өнімді	-5268
cessible	-5269
egetated	-5270
ervation	-5271
ificance	-5272
learning	-5273
plicates	-5274
restrial	-5275
sumption	-5276
undation	-5277
undwater	-5278
urbances	-5279
utrients	-5280
ynthetic	-5281
Аномалия	-5282
Инференс	-5283
Машинное	-5284
алдануын	-5285
алдардың	-5286
ализацию	-5287
ануарлар	-5288
араметры	-5289
ательной	-5290
ательных	-5291
болотных	-5292
вазивных	-5293
гнориров	-5294
градации	-5295
елющиеся	-5296
зациялау	-5297
ирование	-5298
ительные	-5299
Тұщы	-5300
ogens	-5301
номию	-5302
салар	-5303
ующие	-5304
хозяй	-5305
▁task	-5306
▁жүйе	-5307
▁сети	-5308
▁скал	-5309
▁фраг	-5310
▁шуму	-5311
Увелич	-5312
грузки	-5313
▁basin	-5314
▁fails	-5315
▁footh	-5316
▁gains	-5317
▁miscl	-5318
▁point	-5319
▁river	-5320
▁Калиб	-5321
▁Практ	-5322
▁влияя	-5323
▁кроны	-5324
▁охлаж	-5325
▁сжима	-5326
▁среды	-5327
▁сіңіп	-5328
▁шагов	-5329
▁шайын	-5330
ception	-5331
leakage	-5332
ulating	-5333
бучение	-5334
ектігін	-5335
ектілер	-5336
нимость	-5337
пливать	-5338
саларда	-5339
тқыштар	-5340
қуларды	-5341
▁buffer	-5342
▁decept	-5343
▁driven	-5344
▁establ	-5345
▁Адапта	-5346
▁Водный	-5347
▁Данные	-5348
▁азаюын	-5349
▁бывает	-5350
▁долины	-5351
▁лесной	-5352
▁лесные	-5353
▁низким	-5354
▁низких	-5355
▁спроса	-5356
▁сіңуін	-5357
▁уходят	-5358
▁эрозии	-5359
▁өткізб	-5360
атасетах	-5361
ектілігі	-5362
ительным	-5363
ическими	-5364
категори	-5365
копление	-5366
лоскость	-5367
льфидные	-5368
мировать	-5369
множение	-5370
мсартады	-5371
нованный	-5372
ологиясы	-5373
олюбивых	-5374
осстанов	-5375
очищение	-5376
подобные	-5377
почтение	-5378
ременные	-5379
речается	-5380
смещение	-5381
старники	-5382
старының	-5383
ственной	-5384
стракции	-5385
стракция	-5386
сходство	-5387
тправной	-5388
фиолетов	-5389
шеленеді	-5390
ғалаулық	-5391
ңғарлары	-5392
▁Because	-5393
▁adapted	-5394
▁address	-5395
▁another	-5396
▁balance	-5397
▁budgets	-5398
▁buffers	-5399
feg	-5400
ющих	-5401
▁Изб	-5402
▁пло	-5403
▁қыз	-5404
xture	-5405
▁wild	-5406
▁берм	-5407
▁көзі	-5408
▁типы	-5409
▁safeg	-5410
▁Метри	-5411
▁басым	-5412
▁легко	-5413
▁смену	-5414
itrogen	-5415
еверные	-5416
еріледі	-5417
▁errors	-5418
▁rather	-5419
▁wildfi	-5420
▁баптау	-5421
▁бойлап	-5422
▁задаче	-5423
▁наборе	-5424
ражающая	-5425
▁categor	-5426
▁certain	-5427
▁compare	-5428
▁concept	-5429
▁connect	-5430
▁consequ	-5431
▁context	-5432
▁creates	-5433
▁decline	-5434
▁defined	-5435
▁derived	-5436
▁diffuse	-5437
▁domains	-5438
▁failure	-5439
▁feature	-5440
▁geology	-5441
▁glacial	-5442
▁grazing	-5443
▁improve	-5444
▁leading	-5445
▁lifting	-5446
▁linking	-5447
▁modific	-5448
▁outputs	-5449
▁overest	-5450
▁produce	-5451
▁project	-5452
▁reduced	-5453
▁renewal	-5454
▁replace	-5455
▁reshape	-5456
▁respond	-5457
▁running	-5458
▁scaling	-5459
▁signals	-5460
▁stature	-5461
▁streams	-5462
▁sulfide	-5463
▁summary	-5464
▁targets	-5465
▁texture	-5466
▁trained	-5467
▁upslope	-5468
▁valleys	-5469
▁Алдымен	-5470
▁Атрибут	-5471
▁Ағаштар	-5472
▁Биіктік	-5473
▁Граница	-5474
▁Датасет	-5475
▁Избыточ	-5476
▁Метрика	-5477
▁Пресная	-5478
▁айналым	-5479
▁айнымал	-5480
▁аллювий	-5481
▁аспекты	-5482
▁аумағын	-5483
▁ағынның	-5484
▁ағынына	-5485
▁бетінде	-5486
▁бетінің	-5487
▁большая	-5488
▁бустинг	-5489
▁быстрый	-5490
▁верхнюю	-5491
▁включая	-5492
▁водного	-5493
▁водными	-5494
▁воздуха	-5495
▁воздуху	-5496
▁впитыва	-5497
▁входами	-5498
▁выросла	-5499
көл	-5500
▁её	-5501
help	-5502
▁его	-5503
▁рөл	-5504
acted	-5505
based	-5506
гонке	-5507
имому	-5508
ұталы	-5509
▁load	-5510
▁role	-5511
▁Биас	-5512
▁луга	-5513
curity	-5514
embles	-5515
латады	-5516
нечная	-5517
пичный	-5518
циясын	-5519
чивает	-5520
▁above	-5521
▁cycle	-5522
▁Класс	-5523
▁Мұның	-5524
▁Судың	-5525
▁аласа	-5526
▁лугов	-5527
▁миним	-5528
▁однов	-5529
▁шегін	-5530
▁құяды	-5531
current	-5532
roduces	-5533
variate	-5534
ируемые	-5535
ическое	-5536
проница	-5537
чивости	-5538
▁incons	-5539
▁unseen	-5540
▁Жіктеу	-5541
▁Тиімді	-5542
▁бірдей	-5543
▁бұталы	-5544
▁воздей	-5545
▁редкий	-5546
▁таңдау	-5547
baseline	-5548
entrated	-5549
variance	-5550
ximation	-5551
подгонке	-5552
суммиров	-5553
▁contact	-5554
▁gentler	-5555
▁growing	-5556
▁privacy	-5557
▁возвращ	-5558
▁высоких	-5559
▁высокое	-5560
▁высокой	-5561
▁выходов	-5562
▁выходом	-5563
▁глубине	-5564
▁границу	-5565
▁границы	-5566
▁данными	-5567
▁деталей	-5568
▁доверие	-5569
▁дрейфті	-5570
▁есептел	-5571
▁есептеу	-5572
▁жалаңаш	-5573
▁жапырақ	-5574
▁жасырын	-5575
▁жиынтық	-5576
▁жүйелік	-5577
▁запасов	-5578
▁квадрат	-5579
▁кезеңде	-5580
▁кемуіне	-5581
▁кешенді	-5582
▁классах	-5583
▁классом	-5584
▁көбірек	-5585
▁ластану	-5586
▁ледники	-5587
▁массами	-5588
▁минутам	-5589
▁моделям	-5590
▁нарушен	-5591
▁область	-5592
▁обучена	-5593
▁орманды	-5594
▁ортасын	-5595
▁отырады	-5596
▁очистку	-5597
▁ошибках	-5598
▁ошибкой	-5599
горью	-5600
шылар	-5601
▁acts	-5602
▁көшу	-5603
priate	-5604
буфера	-5605
горьях	-5606
лықтай	-5607
лықтан	-5608
ючевые	-5609
ючевым	-5610
▁absol	-5611
▁audit	-5612
▁those	-5613
▁track	-5614
▁Аңғар	-5615
▁Важно	-5616
▁Успех	-5617
▁ветру	-5618
▁кетуі	-5619
▁кіріс	-5620
▁новое	-5621
▁удобр	-5622
▁успех	-5623
▁қанша	-5624
inished	-5625
бросами	-5626
готовка	-5627
латынын	-5628
оносным	-5629
терімен	-5630
уждения	-5631
фераның	-5632
▁Global	-5633
▁choice	-5634
▁effort	-5635
▁growth	-5636
▁hazard	-5637
▁scalar	-5638
▁simult	-5639
▁Вектор	-5640
▁грунта	-5641
▁детали	-5642
▁должно	-5643
▁должны	-5644
▁жануар	-5645
▁жақсар	-5646
▁икемді	-5647
▁кетуін	-5648
▁момент	-5649
▁породы	-5650
▁состав	-5651
▁әдетте	-5652
imentary	-5653
аружение	-5654
шылардың	-5655
▁Overall	-5656
▁choices	-5657
▁hazards	-5658
▁hypoxia	-5659
▁tourism	-5660
▁анализа	-5661
▁аумақты	-5662
▁бетінен	-5663
▁массива	-5664
▁океанов	-5665
▁оқытуды	-5666
▁периоды	-5667
▁повторя	-5668
▁подбора	-5669
▁подходы	-5670
▁поиском	-5671
▁покрове	-5672
▁полноту	-5673
▁понятие	-5674
▁практик	-5675
▁пресной	-5676
▁прирост	-5677
▁проница	-5678
▁простое	-5679
▁простые	-5680
▁процесі	-5681
▁режимом	-5682
▁режимін	-5683
▁решению	-5684
▁салдары	-5685
▁связано	-5686
▁сервере	-5687
▁сервисе	-5688
▁система	-5689
▁системе	-5690
▁систему	-5691
▁склонов	-5692
▁сложная	-5693
▁снегоза	-5694
▁снежном	-5695
▁снижают	-5696
▁событие	-5697
▁событии	-5698
▁события	-5699
▁біріз	-5700
▁надёж	-5701
▁смена	-5702
▁қарай	-5703
latency	-5704
квадрат	-5705
▁floods	-5706
▁labels	-5707
▁жартас	-5708
▁күнгей	-5709
▁связки	-5710
▁сәйкес	-5711
▁уровни	-5712
▁ухудши	-5713
▁қаупін	-5714
▁әкелуі	-5715
Смещение	-5716
▁Changes	-5717
▁Natural	-5718
▁complex	-5719
▁latency	-5720
▁mosaics	-5721
▁natural	-5722
▁release	-5723
▁species	-5724
▁аллювия	-5725
▁балансы	-5726
▁бірізді	-5727
▁доменов	-5728
▁методов	-5729
▁наличии	-5730
▁наличия	-5731
▁среднем	-5732
▁средних	-5733
▁среднюю	-5734
▁стекает	-5735
▁степени	-5736
▁субъект	-5737
▁суықсүй	-5738
▁сәтінде	-5739
▁сәулеге	-5740
▁тазалау	-5741
▁таралуы	-5742
▁тежейді	-5743
▁тереңге	-5744
▁тесттер	-5745
▁течение	-5746
▁течению	-5747
▁транзак	-5748
▁трафика	-5749
▁требуют	-5750
▁тікелей	-5751
▁түрінде	-5752
▁тұздану	-5753
▁тұрғыда	-5754
▁тәжіриб	-5755
▁тәсілді	-5756
▁тәуелді	-5757
▁уровнем	-5758
▁условий	-5759
▁ухудшая	-5760
▁финансы	-5761
▁функции	-5762
▁частоту	-5763
▁человек	-5764
▁человеч	-5765
▁ыдырауы	-5766
▁ығысуын	-5767
▁экспози	-5768
▁явление	-5769
▁қалалық	-5770
▁қамтиды	-5771
▁қателер	-5772
▁қорлары	-5773
▁ұстайды	-5774
▁ұсталып	-5775
▁әйтпесе	-5776
▁әкеледі	-5777
▁әркелкі	-5778
▁әсерлер	-5779
▁Өсімдік	-5780
▁өзгерте	-5781
▁өңірлер	-5782
ativeness	-5783
erbivores	-5784
mentation	-5785
orphology	-5786
parameter	-5787
renewable	-5788
Валидация	-5789
Дисперсия	-5790
Интерфейс	-5791
Машиналық	-5792
араметров	-5793
ательного	-5794
ационного	-5795
баланудың	-5796
валидацию	-5797
валидация	-5798
грязнение	-5799
▁Допол	-5800
▁анализ	-5801
▁нұсқал	-5802
▁покрыта	-5803
▁расходы	-5804
Агрегация	-5805
дисперсия	-5806
дырлардың	-5807
зирования	-5808
зрачность	-5809
исывающая	-5810
ительство	-5811
лепользов	-5812
леуметтік	-5813
лобальный	-5814
мическими	-5815
орических	-5816
орректной	-5817
ределение	-5818
ременного	-5819
сложнения	-5820
ственными	-5821
чёркивают	-5822
щественно	-5823
ғидатымен	-5824
қағаздағы	-5825
▁Aquifers	-5826
▁Datasets	-5827
▁Glaciers	-5828
▁Seasonal	-5829
▁Treeline	-5830
▁absolute	-5831
▁abundant	-5832
▁behavior	-5833
▁building	-5834
▁cleaning	-5835
▁collapse	-5836
▁computer	-5837
▁concerns	-5838
▁creating	-5839
▁datasets	-5840
▁defining	-5841
▁degraded	-5842
▁deposits	-5843
▁duration	-5844
▁episodic	-5845
▁estimate	-5846
▁flooding	-5847
▁fraction	-5848
▁fragment	-5849
▁generate	-5850
▁glaciers	-5851
▁governed	-5852
▁implicit	-5853
▁improved	-5854
▁improves	-5855
▁industry	-5856
▁labeling	-5857
▁latitude	-5858
▁minerals	-5859
▁minimize	-5860
▁modeling	-5861
▁movement	-5862
▁outfalls	-5863
▁overwhel	-5864
▁pastoral	-5865
▁periodic	-5866
▁phosphor	-5867
▁position	-5868
▁quantity	-5869
▁rainfall	-5870
▁reflects	-5871
▁reliable	-5872
▁requires	-5873
▁reserves	-5874
▁scarcity	-5875
▁sequence	-5876
▁shifting	-5877
▁shortens	-5878
▁snowmelt	-5879
▁stopping	-5880
▁sustains	-5881
▁temporal	-5882
▁triggers	-5883
▁variance	-5884
▁Алгоритм	-5885
▁Аномалия	-5886
▁Байесовс	-5887
▁Дайындау	-5888
▁Животный	-5889
▁Инференс	-5890
▁Инфрақұр	-5891
▁Машинное	-5892
▁Модельді	-5893
▁Обучение	-5894
▁Сызықтық	-5895
▁Тестовый	-5896
▁Типичный	-5897
▁Этикалық	-5898
▁альпілік	-5899
бцу	-5900
▁юж	-5901
лась	-5902
шлив	-5903
ящая	-5904
▁0.8	-5905
▁key	-5906
▁піш	-5907
aware	-5908
ermal	-5909
scale	-5910
ually	-5911
Класс	-5912
анизм	-5913
годий	-5914
күшті	-5915
лмауы	-5916
троль	-5917
ындыс	-5918
▁flux	-5919
▁баяу	-5920
▁даёт	-5921
▁длит	-5922
▁зоне	-5923
▁ходе	-5924
▁үсік	-5925
cedent	-5926
Подбор	-5927
бындар	-5928
вигают	-5929
кратно	-5930
лищами	-5931
ночных	-5932
трацию	-5933
шливые	-5934
▁loads	-5935
▁steep	-5936
▁total	-5937
▁биоты	-5938
▁дораз	-5939
▁жинау	-5940
▁зимой	-5941
▁милли	-5942
▁сипат	-5943
▁южные	-5944
▁үлкен	-5945
исходит	-5946
ционалу	-5947
▁framed	-5948
▁settle	-5949
▁постоя	-5950
▁тундро	-5951
▁угодий	-5952
например	-5953
▁altered	-5954
▁channel	-5955
▁thermal	-5956
▁usually	-5957
▁алынған	-5958
▁быстрее	-5959
▁площадь	-5960
▁пішінге	-5961
▁столбцу	-5962
▁үсіксіз	-5963
логиялары	-5964
орытындыс	-5965
▁арттыруы	-5966
▁атқарады	-5967
▁аумақтар	-5968
▁ағынының	-5969
▁базасына	-5970
▁байқалса	-5971
▁байқалуы	-5972
▁балықтар	-5973
▁батпақты	-5974
▁бермейді	-5975
▁беспозво	-5976
▁биосферы	-5977
▁буланады	-5978
▁бустинга	-5979
▁бірқалып	-5980
▁бөлінеді	-5981
▁ветровой	-5982
▁вещества	-5983
▁виденных	-5984
▁влияющие	-5985
▁водотоки	-5986
▁водяного	-5987
▁возможно	-5988
▁выбирать	-5989
▁высотная	-5990
▁высотной	-5991
▁высотные	-5992
▁высотных	-5993
▁геологии	-5994
▁дайындау	-5995
▁дождевой	-5996
▁доступны	-5997
▁дәлдікті	-5998
▁дәрежесі	-5999
group	-6000
После	-6001
блицы	-6002
түрлі	-6003
▁much	-6004
▁Выше	-6005
▁ряде	-6006
▁слиш	-6007
▁счит	-6008
▁қуаң	-6009
atisfy	-6010
cribed	-6011
ктарды	-6012
▁Hydro	-6013
▁curve	-6014
▁delay	-6015
▁drawd	-6016
▁seeds	-6017
▁small	-6018
▁until	-6019
▁Деген	-6020
▁биоәр	-6021
▁голых	-6022
▁жақсы	-6023
▁жоғар	-6024
▁мәңгі	-6025
▁науке	-6026
▁нужны	-6027
▁обобщ	-6028
▁плани	-6029
▁схемы	-6030
▁шығын	-6031
▁шөгуі	-6032
▁құпия	-6033
▁өлшеу	-6034
enishes	-6035
oritize	-6036
perties	-6037
ерпанию	-6038
оточена	-6039
тталған	-6040
▁begins	-6041
▁sealed	-6042
▁storms	-6043
▁Гиперп	-6044
▁ауысып	-6045
▁миними	-6046
▁объёме	-6047
▁охрану	-6048
▁тәртіп	-6049
▁учётом	-6050
▁шумных	-6051
▁қорғау	-6052
Baseline	-6053
ивающего	-6054
▁Disturb	-6055
▁Feature	-6056
▁missing	-6057
▁proxies	-6058
▁satisfy	-6059
▁безопас	-6060
▁высокую	-6061
▁крупную	-6062
▁скрытых	-6063
▁слишком	-6064
▁таблицы	-6065
▁тәуекел	-6066
▁формату	-6067
▁целевых	-6068
▁шешімін	-6069
imization	-6070
▁drawdown	-6071
▁subgroup	-6072
▁Дегенмен	-6073
▁Миграции	-6074
▁айналмай	-6075
▁еместігі	-6076
▁етегінен	-6077
▁жерлерде	-6078
▁жерлерді	-6079
▁животные	-6080
▁жиынтығы	-6081
▁жиынының	-6082
▁задержка	-6083
▁задержки	-6084
▁значения	-6085
▁значимый	-6086
▁изменяет	-6087
▁икемделу	-6088
▁инверсии	-6089
▁инверсия	-6090
▁источник	-6091
▁итераций	-6092
▁итерация	-6093
▁итоговый	-6094
▁кезеңіне	-6095
▁ключевые	-6096
▁конечная	-6097
▁контакта	-6098
▁күшейеді	-6099
▁same	-6100
▁өсім	-6101
▁Hemis	-6102
▁Physi	-6103
▁Перев	-6104
▁жәшік	-6105
▁иначе	-6106
▁летом	-6107
▁людей	-6108
▁малых	-6109
▁шоғыр	-6110
bearing	-6111
гілікті	-6112
ческого	-6113
▁avalan	-6114
▁bodies	-6115
▁deeper	-6116
▁handle	-6117
▁histor	-6118
▁levels	-6119
▁memory	-6120
▁observ	-6121
▁others	-6122
▁slowly	-6123
▁splits	-6124
▁ventil	-6125
▁Сөйтіп	-6126
▁именно	-6127
▁көлдер	-6128
▁преиму	-6129
▁талдау	-6130
▁тонкие	-6131
▁числен	-6132
▁эффект	-6133
atistics	-6134
dicators	-6135
labeling	-6136
вовавших	-6137
ымдасады	-6138
▁affects	-6139
▁caution	-6140
▁centers	-6141
▁coastal	-6142
▁explain	-6143
▁feeding	-6144
▁maximal	-6145
▁springs	-6146
▁squared	-6147
▁stomata	-6148
▁utility	-6149
▁wetland	-6150
▁башнями	-6151
▁бөлінуі	-6152
▁водосна	-6153
▁жасанды	-6154
▁инфраст	-6155
▁кідіріс	-6156
▁обуслов	-6157
▁основой	-6158
▁поэтому	-6159
▁районах	-6160
▁слияния	-6161
▁өсіреді	-6162
▁porosity	-6163
▁terraces	-6164
▁Проблемы	-6165
▁кірістер	-6166
▁күшейтіп	-6167
▁көбейеді	-6168
▁көптеген	-6169
▁ледниках	-6170
▁материал	-6171
▁мекендеу	-6172
▁меняются	-6173
▁механизм	-6174
▁минералы	-6175
▁мұнарасы	-6176
▁наземных	-6177
▁например	-6178
▁напротив	-6179
▁невелика	-6180
▁неполной	-6181
▁образует	-6182
▁обратной	-6183
▁органики	-6184
▁ормандар	-6185
▁орошение	-6186
▁ортадағы	-6187
▁осадками	-6188
▁пайдалық	-6189
▁перерасп	-6190
▁повышать	-6191
▁подбором	-6192
▁подгонки	-6193
▁подушков	-6194
▁показала	-6195
▁покровом	-6196
▁полезным	-6197
▁получают	-6198
▁породами	-6199
оценки	-6200
▁Earth	-6201
▁ident	-6202
▁noise	-6203
▁which	-6204
▁самый	-6205
▁сығыл	-6206
▁талап	-6207
изуются	-6208
лғалдың	-6209
қынынан	-6210
▁Neural	-6211
▁always	-6212
▁aspect	-6213
▁debris	-6214
▁faster	-6215
▁hidden	-6216
▁should	-6217
▁widely	-6218
▁Жоғары	-6219
▁Таулар	-6220
▁буының	-6221
▁другой	-6222
▁кредит	-6223
▁сүруін	-6224
▁түйірш	-6225
▁түседі	-6226
▁ішінде	-6227
▁қышқыл	-6228
aneously	-6229
основать	-6230
раженной	-6231
срочного	-6232
іпсіздік	-6233
▁Warming	-6234
▁acidity	-6235
▁cushion	-6236
▁dropout	-6237
▁portion	-6238
▁science	-6239
▁бірнеше	-6240
▁которых	-6241
▁местооб	-6242
▁обстоят	-6243
▁орнықты	-6244
▁просачи	-6245
▁противо	-6246
▁совпала	-6247
▁стресса	-6248
▁тоқтату	-6249
▁түзілуі	-6250
▁фосфора	-6251
▁Қосымша	-6252
including	-6253
ментирует	-6254
менттерге	-6255
реженному	-6256
▁Learning	-6257
▁Standard	-6258
▁aligning	-6259
▁analysis	-6260
▁combined	-6261
▁sampling	-6262
▁supplies	-6263
▁variants	-6264
▁арттырып	-6265
▁аталатын	-6266
▁болғанда	-6267
▁возникло	-6268
▁жалпылау	-6269
▁жағдайда	-6270
▁жаңаруын	-6271
▁жыныстар	-6272
▁көрінеді	-6273
▁правовые	-6274
▁приводит	-6275
▁признаки	-6276
▁проверка	-6277
▁просадке	-6278
▁работать	-6279
▁радиации	-6280
▁разброса	-6281
▁разметки	-6282
▁растений	-6283
▁растения	-6284
▁реальном	-6285
▁реальный	-6286
▁реальным	-6287
▁регионах	-6288
▁рельефом	-6289
▁ресурсам	-6290
▁ресурсом	-6291
▁решением	-6292
▁сапасына	-6293
▁сақтауға	-6294
▁сводится	-6295
▁свойства	-6296
▁свойство	-6297
▁сезонной	-6298
▁сезонные	-6299
ающееся	-6300
▁Excess	-6301
▁причём	-6302
▁рыхлый	-6303
▁сегмен	-6304
▁тасқын	-6305
▁эрозию	-6306
riparian	-6307
ледствие	-6308
мической	-6309
▁applied	-6310
▁bedrock	-6311
▁capture	-6312
▁central	-6313
▁display	-6314
▁volumes	-6315
▁Базовая	-6316
▁Топырақ	-6317
▁говорят	-6318
▁енуінен	-6319
▁жатаған	-6320
▁жүзінде	-6321
▁комбини	-6322
▁морской	-6323
▁продолж	-6324
▁сиретіп	-6325
▁случаев	-6326
▁тотығуы	-6327
▁ұзақмер	-6328
▁әрдайым	-6329
elevation	-6330
дықтардың	-6331
матривают	-6332
▁Improper	-6333
▁alluvial	-6334
▁barriers	-6335
▁baseflow	-6336
▁damaging	-6337
▁drinking	-6338
▁followed	-6339
▁repeated	-6340
▁unevenly	-6341
▁аздығына	-6342
▁апостери	-6343
▁атқарған	-6344
▁көтерілу	-6345
▁нәтижесі	-6346
▁означать	-6347
▁описание	-6348
▁отделяет	-6349
▁паводков	-6350
▁помогает	-6351
▁попадает	-6352
▁профилей	-6353
▁сезіледі	-6354
▁сенсоров	-6355
▁сигналом	-6356
▁сильному	-6357
▁скоринге	-6358
▁скорости	-6359
▁скорость	-6360
▁скрывает	-6361
▁снежники	-6362
▁снижение	-6363
▁снижению	-6364
▁создание	-6365
▁сокращая	-6366
▁солёными	-6367
▁сопостав	-6368
▁среднего	-6369
▁сточными	-6370
▁сулардан	-6371
▁сулардың	-6372
▁суларына	-6373
▁таралады	-6374
▁таралуын	-6375
▁таралған	-6376
▁тереңдік	-6377
▁террасах	-6378
▁теріскей	-6379
▁толықтық	-6380
▁точности	-6381
▁тудырады	-6382
▁тұрақсыз	-6383
▁тұрғыдан	-6384
▁тәжірибе	-6385
▁урбанизи	-6386
▁ускорила	-6387
▁условиям	-6388
▁успешным	-6389
▁уступают	-6390
▁уточняет	-6391
▁факторов	-6392
▁фактором	-6393
▁финалдық	-6394
▁формируя	-6395
▁халықтың	-6396
▁химиялық	-6397
▁холодный	-6398
▁хранится	-6399
▁trends	-6400
▁азайту	-6401
▁көбеюі	-6402
▁methods	-6403
▁problem	-6404
▁подъёма	-6405
▁снизило	-6406
▁тиесілі	-6407
▁тұтынуы	-6408
▁ыңғайлы	-6409
▁құнарлы	-6410
arginally	-6411
▁Although	-6412
▁Northern	-6413
▁enabling	-6414
▁hardness	-6415
▁hierarch	-6416
▁outburst	-6417
▁Например	-6418
▁Несмотря	-6419
▁аппрокси	-6420
▁водоёмов	-6421
▁міндетті	-6422
▁пределах	-6423
▁создавая	-6424
▁тундраға	-6425
▁частотам	-6426
▁человеку	-6427
▁числовых	-6428
▁шаралары	-6429
▁шекарасы	-6430
▁шектейді	-6431
▁шектеулі	-6432
▁шөптесін	-6433
▁ыдырауын	-6434
▁экологии	-6435
▁экология	-6436
▁эрозияны	-6437
▁являются	-6438
▁Құрлыққа	-6439
▁қабылдап	-6440
▁қайтадан	-6441
▁қорларға	-6442
▁қызметін	-6443
▁құбылысы	-6444
▁құрамына	-6445
▁құқықтық	-6446
▁үздіксіз	-6447
▁үйренеді	-6448
▁үйренуді	-6449
▁әдістері	-6450
▁әлемінде	-6451
▁әсерімен	-6452
▁өзгереді	-6453
▁өзгертіп	-6454
▁өлшенеді	-6455
▁өтіндегі	-6456
imentation	-6457
portionate	-6458
reservoirs	-6459
validation	-6460
Нелинейная	-6461
Сортировка	-6462
ақпараттың	-6463
былғанымен	-6464
знообразия	-6465
ммировании	-6466
нетронутым	-6467
никновения	-6468
отвращения	-6469
положность	-6470
рированный	-6471
ритический	-6472
усреднение	-6473
формативна	-6474
щественным	-6475
▁Intensive	-6476
▁aggregate	-6477
▁alignment	-6478
▁available	-6479
▁benchmark	-6480
▁biosphere	-6481
▁buffering	-6482
▁carbonate	-6483
▁challenge	-6484
▁chemicals	-6485
▁chemistry	-6486
▁community	-6487
▁compacted	-6488
▁component	-6489
▁concerned	-6490
▁condenses	-6491
▁declining	-6492
▁decreases	-6493
▁degrading	-6494
▁detecting	-6495
▁detection	-6496
▁dispersal	-6497
▁distances	-6498
▁dominates	-6499
▁nitrogen	-6500
▁security	-6501
▁Ключевым	-6502
▁жақсарту	-6503
▁нагрузки	-6504
▁северные	-6505
▁экономию	-6506
▁құлатады	-6507
Увеличение	-6508
зациялауға	-6509
▁covariate	-6510
▁efficient	-6511
▁elevating	-6512
▁emphasize	-6513
▁ensembles	-6514
▁essential	-6515
▁eutrophic	-6516
▁excessive	-6517
▁expensive	-6518
▁favorable	-6519
▁fisheries	-6520
▁foothills	-6521
▁fractured	-6522
▁headwater	-6523
▁hydraulic	-6524
▁hydrology	-6525
▁increased	-6526
▁increases	-6527
▁influence	-6528
▁intensify	-6529
▁intervals	-6530
▁introduce	-6531
▁intrusion	-6532
▁landscape	-6533
▁lifecycle	-6534
▁magnified	-6535
▁meltwater	-6536
▁migration	-6537
▁mountains	-6538
▁nutrients	-6539
▁organisms	-6540
▁oxidizing	-6541
▁pathogens	-6542
▁practices	-6543
▁precision	-6544
▁producing	-6545
▁provision	-6546
▁radiation	-6547
▁reduction	-6548
▁releasing	-6549
▁reporting	-6550
▁reservoir	-6551
▁residence	-6552
▁saltwater	-6553
▁schedules	-6554
▁selection	-6555
▁separates	-6556
▁similarly	-6557
▁subalpine	-6558
▁sustained	-6559
▁synthetic	-6560
▁temperate	-6561
▁temporary	-6562
▁translate	-6563
▁treatment	-6564
▁underpins	-6565
▁variables	-6566
▁wildfires	-6567
▁Агрегация	-6568
▁Адаптация	-6569
▁Валидация	-6570
▁Дисперсия	-6571
▁Доступная	-6572
▁Жануарлар	-6573
▁Испарение	-6574
▁Климаттың	-6575
▁Машиналық	-6576
▁Мұздықтар	-6577
▁Нейрондық	-6578
▁Нейронные	-6579
▁Отдельное	-6580
▁Отправной	-6581
▁Пайдалану	-6582
▁Перевыпас	-6583
▁Подземные	-6584
▁Поскольку	-6585
▁адаптации	-6586
▁адаптацию	-6587
▁аквиферов	-6588
▁активации	-6589
▁алгоритма	-6590
▁алгоритму	-6591
▁алгоритмы	-6592
▁ансамблей	-6593
▁анықталуы	-6594
▁анықтауға	-6595
▁априорные	-6596
▁атмосферу	-6597
▁атмосферы	-6598
▁аңғарлары	-6599
▁жабындар	-6600
▁контроль	-6601
▁сдвигают	-6602
▁Hydrology	-6603
▁described	-6604
▁histories	-6605
▁байқалады	-6606
▁балансына	-6607
▁басқаруда	-6608
▁бағалануы	-6609
▁бағалауда	-6610
▁биіктікке	-6611
▁болдырмау	-6612
▁бөлшектеп	-6613
▁валидация	-6614
▁влажности	-6615
▁внедрение	-6616
▁внедрении	-6617
▁водохрани	-6618
▁воздушных	-6619
▁возникает	-6620
▁возникают	-6621
▁восстанов	-6622
▁второстеп	-6623
▁выбросами	-6624
▁выделение	-6625
▁выпадение	-6626
▁выполняли	-6627
▁выступает	-6628
▁гибридной	-6629
▁горизонты	-6630
▁городских	-6631
▁градиенты	-6632
▁градиенті	-6633
▁грунтовой	-6634
▁датасетах	-6635
▁деңгейден	-6636
▁деңгейіне	-6637
▁дисперсия	-6638
▁диффузным	-6639
▁жайылымды	-6640
▁жизненные	-6641
▁жоспарлау	-6642
▁жоғалтуды	-6643
▁жёсткость	-6644
▁жүйелерді	-6645
▁замедлено	-6646
▁засолению	-6647
▁заттардың	-6648
▁игнориров	-6649
▁излучению	-6650
▁изменению	-6651
▁измерения	-6652
▁изучающую	-6653
▁инженерия	-6654
▁интервалы	-6655
▁испарение	-6656
▁истинного	-6657
▁источники	-6658
▁кездеседі	-6659
▁кезеңінде	-6660
▁керісінше	-6661
▁кислорода	-6662
▁колебаний	-6663
▁колебания	-6664
▁контексте	-6665
▁кредитном	-6666
▁көрсетеді	-6667
▁локальной	-6668
▁локальные	-6669
▁метрикасы	-6670
▁миллионов	-6671
▁мозаикалы	-6672
▁мозаичные	-6673
▁мәдениеті	-6674
▁населения	-6675
▁насколько	-6676
▁настройки	-6677
▁небольшое	-6678
▁неоднород	-6679
▁неполноте	-6680
▁нұсқалары	-6681
▁обработке	-6682
▁обработку	-6683
▁обучающем	-6684
▁обучающую	-6685
▁обученной	-6686
▁объектной	-6687
▁объясняет	-6688
▁окислении	-6689
▁орографии	-6690
▁отдельном	-6691
▁отложений	-6692
▁относится	-6693
▁оценивают	-6694
▁пересмотр	-6695
▁поведении	-6696
▁повторное	-6697
▁поддержки	-6698
▁подземные	-6699
▁позволяют	-6700
▁получении	-6701
▁получения	-6702
▁пополняет	-6703
▁пороговой	-6704
▁поселений	-6705
▁поскольку	-6706
▁почвенных	-6707
▁поясности	-6708
▁поясность	-6709
▁предгорий	-6710
▁приводить	-6711
▁пропусков	-6712
▁процессом	-6713
▁развивают	-6714
▁различать	-6715
▁реального	-6716
▁рельефтің	-6717
▁салқындау	-6718
▁сапасының	-6719
▁связности	-6720
▁сегментах	-6721
▁сезонного	-6722
▁сельского	-6723
▁сжимаемых	-6724
▁системами	-6725
▁сложности	-6726
▁смещаются	-6727
▁смывается	-6728
▁снежников	-6729
▁снижается	-6730
▁снижаться	-6731
▁солнечной	-6732
▁сондықтан	-6733
▁сообществ	-6734
▁социально	-6735
▁способным	-6736
▁способных	-6737
▁сравнения	-6738
▁стоимость	-6739
▁структуру	-6740
▁структуры	-6741
▁считается	-6742
▁сығылуына	-6743
▁сәйкестік	-6744
▁таралымын	-6745
▁таралымға	-6746
▁типичного	-6747
▁тығыздалу	-6748
▁түсінбеуі	-6749
▁тұрмыстық	-6750
▁төмендегі	-6751
▁төмендеуі	-6752
▁указывает	-6753
▁улучшение	-6754
▁упрощения	-6755
▁учитывать	-6756
▁факторлар	-6757
▁физикалық	-6758
▁финальной	-6759
▁формируют	-6760
▁фосфордың	-6761
▁хозяйства	-6762
▁частотная	-6763
▁численный	-6764
▁шалғындар	-6765
▁шараларға	-6766
▁элементов	-6767
▁этические	-6768
▁қабілетін	-6769
▁қателерді	-6770
▁қуаңдануы	-6771
▁қысқарады	-6772
▁құбылысты	-6773
▁құпиялығы	-6774
▁құрастыру	-6775
▁құрлықтан	-6776
▁құрылымын	-6777
▁үйренетін	-6778
▁әдістерін	-6779
▁өзгеруіне	-6780
▁өзендерге	-6781
▁өзендерде	-6782
▁өзендерді	-6783
adversarial	-6784
overfitting	-6785
Байесовская	-6786
Вероятность	-6787
байесовская	-6788
зацияланған	-6789
отреблением	-6790
поступление	-6791
тқыштарынан	-6792
түрліліктің	-6793
фиолетовому	-6794
▁Concurrent	-6795
▁Deployment	-6796
▁Discipline	-6797
▁Ecosystems	-6798
▁Evaluation	-6799
▁Hemisphere	-6800
▁Indicators	-6801
▁Monitoring	-6802
▁Preventing	-6803
▁Production	-6804
▁accessible	-6805
▁accounting	-6806
▁accumulate	-6807
▁activities	-6808
▁adaptation	-6809
▁aggregates	-6810
▁algorithms	-6811
▁antecedent	-6812
▁assumption	-6813
▁avalanches	-6814
▁behavioral	-6815
▁compaction	-6816
▁compliance	-6817
▁confidence	-6818
▁constraint	-6819
▁contribute	-6820
▁controlled	-6821
▁conveyance	-6822
▁cryosphere	-6823
▁definition	-6824
▁determines	-6825
▁diminished	-6826
▁discipline	-6827
▁duplicates	-6828
▁estimation	-6829
▁evaporates	-6830
▁extraction	-6831
▁foundation	-6832
▁geographic	-6833
▁herbivores	-6834
▁increasing	-6835
▁integrated	-6836
▁introduces	-6837
▁landslides	-6838
▁marginally	-6839
▁measurable	-6840
▁morphology	-6841
▁orographic	-6842
▁parameters	-6843
▁partitions	-6844
▁phosphorus	-6845
▁predictive	-6846
▁prioritize	-6847
▁productive	-6848
▁properties	-6849
▁recreation	-6850
▁reflecting	-6851
▁regression	-6852
▁retraining	-6853
▁robustness	-6854
▁safeguards	-6855
▁settlement	-6856
▁shrublands	-6857
▁statistics	-6858
▁subsidence	-6859
▁supporting	-6860
▁underlying	-6861
▁understood	-6862
▁wastewater	-6863
▁Абстракция	-6864
▁Аңғарларда	-6865
▁Водоносные	-6866
▁Деректерде	-6867
▁Избыточное	-6868
▁Калибровка	-6869
▁Компромисс	-6870
▁Подготовка	-6871
▁Сохранение	-6872
▁абсолютную	-6873
▁абсолюттік	-6874
▁абстракции	-6875
▁аймақтарда	-6876
▁аймақтарды	-6877
▁аймақтарын	-6878
▁активности	-6879
▁альпийские	-6880
▁антропоген	-6881
▁анықталады	-6882
▁аспектілер	-6883
▁ақпараттың	-6884
▁бассейндік	-6885
▁бағаланады	-6886
▁белгілерге	-6887
▁белдеулері	-6888
▁біріктіріп	-6889
▁бірқалыпты	-6890
▁включающий	-6891
▁водозабора	-6892
▁водоносных	-6893
▁водоотбора	-6894
▁водорослей	-6895
▁воздушными	-6896
▁возрастает	-6897
▁вследствие	-6898
▁выражающая	-6899
▁выраженной	-6900
▁вычислений	-6901
▁геологиясы	-6902
▁гидрологии	-6903
▁гидрология	-6904
▁гидросферы	-6905
▁глобальный	-6906
▁горизонтах	-6907
▁деградации	-6908
▁деректерді	-6909
▁дисбалансе	-6910
▁дисциплина	-6911
▁дисциплины	-6912
▁домендерде	-6913
▁доминируют	-6914
▁дообучение	-6915
▁доразметка	-6916
▁есептеледі	-6917
▁ескеріледі	-6918
▁жамылғысын	-6919
▁жағалаулық	-6920
▁жергілікті	-6921
▁жиындарына	-6922
▁жұмсартады	-6923
▁завышенных	-6924
▁задаваемые	-6925
▁заморозков	-6926
▁засушливые	-6927
▁защищённые	-6928
▁зерттейтін	-6929
▁измеряется	-6930
▁инвазивных	-6931
▁инженерная	-6932
▁инженерной	-6933
▁инженерный	-6934
▁интеграции	-6935
▁информация	-6936
▁испаряется	-6937
▁испытывает	-6938
▁исчерпанию	-6939
▁калибровка	-6940
▁калибровки	-6941
▁карбонатты	-6942
▁квадраттық	-6943
▁кешендерді	-6944
▁кеңістікте	-6945
▁количество	-6946
▁корректная	-6947
▁критически	-6948
▁кустарники	-6949
▁көрсеткіші	-6950
▁математика	-6951
▁математики	-6952
▁мақсатында	-6953
▁мәселелері	-6954
▁наблюдение	-6955
▁наблюдений	-6956
▁надёжности	-6957
▁накопление	-6958
▁находиться	-6959
▁некоторому	-6960
▁необходимо	-6961
▁обновлении	-6962
▁обобщающей	-6963
▁обосновать	-6964
▁объединяют	-6965
▁омыртқасыз	-6966
▁определить	-6967
▁определяет	-6968
▁оралатынын	-6969
▁орналасқан	-6970
▁основанный	-6971
▁оставаться	-6972
▁отдаваться	-6973
▁отклонение	-6974
▁отличается	-6975
▁отражающие	-6976
▁отражающий	-6977
▁охлаждения	-6978
▁охраняемых	-6979
▁оценивания	-6980
▁пайдаланып	-6981
▁пастбищами	-6982
▁пастбищные	-6983
▁переменных	-6984
▁плотностью	-6985
▁повышенной	-6986
▁подаваемый	-6987
▁подготовку	-6988
▁покрытиями	-6989
▁полезность	-6990
▁пополнение	-6991
▁пористости	-6992
▁постановку	-6993
▁постоянной	-6994
▁построение	-6995
▁построения	-6996
▁потребовал	-6997
▁предгорьях	-6998
▁приведение	-6999
▁приводящая	-7000
▁прикладной	-7001
▁прикладном	-7002
▁применение	-7003
▁применения	-7004
▁происходит	-7005
▁разделение	-7006
▁разложение	-7007
▁реализации	-7008
▁результата	-7009
▁саясатының	-7010
▁сезонность	-7011
▁склонность	-7012
▁соблюдение	-7013
▁сокращение	-7014
▁сообщества	-7015
▁сочетанием	-7016
▁стабильное	-7017
▁стелющиеся	-7018
▁сульфидные	-7019
▁суықсүйгіш	-7020
▁сходимость	-7021
▁таңдалмаса	-7022
▁тексеріске	-7023
▁территории	-7024
▁требований	-7025
▁төмендейді	-7026
▁увеличения	-7027
▁увлажнения	-7028
▁уплотнению	-7029
▁уплотнения	-7030
▁усложнения	-7031
▁устойчивое	-7032
▁устойчивых	-7033
▁ухудшилась	-7034
▁уязвимость	-7035
▁физическим	-7036
▁формальное	-7037
▁функциясын	-7038
▁шайындыдан	-7039
▁ылғалдырақ	-7040
▁экожүйелік	-7041
▁Қорытындыс	-7042
▁қабаттарын	-7043
▁қалыптасуы	-7044
▁қарқынынан	-7045
▁қолданатын	-7046
▁қолданбалы	-7047
▁қолжетімді	-7048
▁қорғалатын	-7049
▁қысқартады	-7050
▁құрлықтағы	-7051
▁ұйымдасады	-7052
▁әлеуметтік	-7053
▁әлсіретеді	-7054
▁Өндірістік	-7055
▁өзгерісіне	-7056
▁өзендердің	-7057
Нормализация	-7058
квадратичную	-7059
проницаемыми	-7060
ределённости	-7061
суммирование	-7062
экономикалық	-7063
▁Altitudinal	-7064
▁Disturbance	-7065
▁Engineering	-7066
▁Groundwater	-7067
▁Overgrazing	-7068
▁Sustainable	-7069
▁adversarial	-7070
▁altitudinal	-7071
▁appropriate	-7072
▁approximate	-7073
▁assemblages	-7074
▁categorical	-7075
▁channelized	-7076
▁circulation	-7077
▁communities	-7078
▁complements	-7079
▁compressing	-7080
▁constrained	-7081
▁deceptively	-7082
▁development	-7083
▁disparities	-7084
▁distributed	-7085
▁established	-7086
▁evaporation	-7087
▁experiments	-7088
▁formalizing	-7089
▁hydrosphere	-7090
▁identifying	-7091
▁incorporate	-7092
▁influencing	-7093
▁maintaining	-7094
▁maintenance	-7095
▁mountainous	-7096
▁practically	-7097
▁predictions	-7098
▁preparation	-7099
▁regulations	-7100
▁replenishes	-7101
▁requirement	-7102
▁restoration	-7103
▁sedimentary	-7104
▁specialists	-7105
▁stimulating	-7106
▁substantial	-7107
▁sustainable	-7108
▁terrestrial	-7109
▁transported	-7110
▁unavailable	-7111
▁uncertainty	-7112
▁ventilation	-7113
▁withdrawals	-7114
▁Байесовский	-7115
▁Вероятность	-7116
▁Критический	-7117
▁Нәтижесінде	-7118
▁Практикалық	-7119
▁Современные	-7120
▁айнымалылар	-7121
▁айтарлықтай	-7122
▁айырмашылық	-7123
▁алгоритмдер	-7124
▁ансамбльдер	-7125
▁архитектура	-7126
▁атмосферада	-7127
▁атмосфераға	-7128
▁атмосферное	-7129
▁ауытқуларды	-7130
▁байқалмайды	-7131
▁барысындағы	-7132
▁бағытталған	-7133
▁бейімделеді	-7134
▁белдеулерге	-7135
▁белдеулерде	-7136
▁биологиялық	-7137
▁вероятность	-7138
▁воздействию	-7139
▁возможность	-7140
▁впитывается	-7141
▁вредоносным	-7142
▁встречается	-7143
▁высокогорью	-7144
▁градиенттік	-7145
▁деректерден	-7146
▁деректердің	-7147
▁достигается	-7148
▁доступность	-7149
▁дыхательной	-7150
▁есептерінде	-7151
▁жоғарылаған	-7152
▁загрязнение	-7153
▁извлекается	-7154
▁извлекающих	-7155
▁интенсивной	-7156
▁интенсивным	-7157
▁интервалдар	-7158
▁информатики	-7159
▁карбонатные	-7160
▁кезеңіндегі	-7161
▁кермектігін	-7162
▁кеуектілігі	-7163
▁кеңістіктік	-7164
▁кислотности	-7165
▁кодирование	-7166
▁комплексных	-7167
▁компромиссе	-7168
▁конденсацию	-7169
▁коэффициент	-7170
▁микроклимат	-7171
▁минимальные	-7172
▁многократно	-7173
▁модельдерді	-7174
▁модификации	-7175
▁мониторинга	-7176
▁мұздықтарда	-7177
▁мұхиттардан	-7178
▁наблюдаемое	-7179
▁наблюдаются	-7180
▁наветренных	-7181
▁накапливать	-7182
▁направление	-7183
▁негізделеді	-7184
▁недоступная	-7185
▁несколькими	-7186
▁обнаружение	-7187
▁объединение	-7188
▁ограничения	-7189
▁описывающая	-7190
▁оптимизатор	-7191
▁отклоняться	-7192
▁параметрами	-7193
▁поддержание	-7194
▁последующее	-7195
▁последующую	-7196
▁поступление	-7197
▁поступления	-7198
▁потребности	-7199
▁приватность	-7200
▁применяющих	-7201
▁провоцирует	-7202
▁производных	-7203
▁радиациясын	-7204
▁разделяющая	-7205
▁различаются	-7206
▁размножение	-7207
▁рассуждения	-7208
▁регрессияда	-7209
▁сезімталдық	-7210
▁сипатталады	-7211
▁специальные	-7212
▁способности	-7213
▁способность	-7214
▁стратегиясы	-7215
▁структурной	-7216
▁субальпілік	-7217
▁таралымының	-7218
▁теңіздердің	-7219
▁толықтырады	-7220
▁толықтыруды	-7221
▁транзакциях	-7222
▁требованиям	-7223
▁тщательного	-7224
▁түйіршіктік	-7225
▁төзімділігі	-7226
▁увеличивают	-7227
▁уверенности	-7228
▁удобрениями	-7229
▁функционалу	-7230
▁химическими	-7231
▁шоғырланған	-7232
▁экожүйелері	-7233
▁экспозицией	-7234
▁қабаттардың	-7235
▁қалыптасқан	-7236
▁қарастыруға	-7237
▁қатынасымен	-7238
▁қауіпсіздік	-7239
▁қағидатымен	-7240
▁қозғалыстар	-7241
▁қолданудағы	-7242
▁қолжетімсіз	-7243
▁қышқылдықты	-7244
▁өндірістегі	-7245
▁өнімділігін	-7246
▁өткізбейтін	-7247
assifications	-7248
Вариативность	-7249
Генерализация	-7250
астительность	-7251
лепользования	-7252
экономическим	-7253
▁Conservation	-7254
▁Infiltration	-7255
▁applications	-7256
▁auditability	-7257
▁augmentation	-7258
▁concentrated	-7259
▁connectivity	-7260
▁contributing	-7261
▁contribution	-7262
▁disturbances	-7263
▁hierarchical	-7264
▁implications	-7265
▁inconsistent	-7266
▁interactions	-7267
▁interception	-7268
▁optimization	-7269
▁overestimate	-7270
▁overwhelming	-7271
▁phenological	-7272
▁representing	-7273
▁requirements	-7274
▁significance	-7275
▁successional	-7276
▁temperatures	-7277
▁Инфрақұрылым	-7278
▁Нормализация	-7279
▁Эксплуатация	-7280
▁аймақтардағы	-7281
▁аквиферлерде	-7282
▁атмосфералық	-7283
▁байланыстыру	-7284
▁балдырлардың	-7285
▁безопасности	-7286
▁белгілерінің	-7287
▁белдеулердің	-7288
▁біріктіретін	-7289
▁вегетациялық	-7290
▁вероятностей	-7291
▁возвращается	-7292
▁градиентного	-7293
▁деятельности	-7294
▁длительности	-7295
▁доминировать	-7296
▁ерекшеленеді	-7297
▁естественное	-7298
▁жабылғанымен	-7299
▁жайылымдарды	-7300
▁жамылғысында	-7301
▁жануарлардың	-7302
▁изменчивости	-7303
▁изменяющейся	-7304
▁интенсивного	-7305
▁интенсивному	-7306
▁инфильтрации	-7307
▁инфильтрацию	-7308
▁использовать	-7309
▁используемый	-7310
▁используется	-7311
▁исторических	-7312
▁категориялық	-7313
▁концентрацию	-7314
▁корректность	-7315
▁көлеңкесінде	-7316
▁көтерілуінен	-7317
▁логистикалық	-7318
▁метрикаларын	-7319
▁модельдерден	-7320
▁мұздықтардың	-7321
▁направленных	-7322
▁некорректной	-7323
▁неравномерно	-7324
▁нормализацию	-7325
▁нормализация	-7326
▁объяснимость	-7327
▁ограниченном	-7328
▁ограниченный	-7329
▁ограничивает	-7330
▁одновременно	-7331
▁определяющее	-7332
▁определённые	-7333
▁оптимизатора	-7334
▁орографиялық	-7335
▁отличающееся	-7336
▁относительно	-7337
▁переноситься	-7338
▁переобучение	-7339
▁переобучению	-7340
▁переобучения	-7341
▁персональных	-7342
▁планирования	-7343
▁подветренные	-7344
▁поддерживать	-7345
▁поддерживают	-7346
▁подчёркивают	-7347
▁практическом	-7348
▁предпочтение	-7349
▁предсказания	-7350
▁представлена	-7351
▁представляет	-7352
▁прозрачность	-7353
▁пропусктарды	-7354
▁пространстве	-7355
▁разреженному	-7356
▁растительным	-7357
▁рациональное	-7358
▁ресурстардың	-7359
▁самоочищение	-7360
▁сельскохозяй	-7361
▁снегозапасов	-7362
▁соответствию	-7363
▁способствуют	-7364
▁стабилизации	-7365
▁стабильность	-7366
▁субъективная	-7367
▁существенных	-7368
▁тапшылығының	-7369
▁таңбаланудың	-7370
▁температурам	-7371
▁температурах	-7372
▁террасаларда	-7373
▁тестирования	-7374
▁тығыздалуына	-7375
▁түсіндірмелі	-7376
▁ультракүлгін	-7377
▁устойчивости	-7378
▁факторлардың	-7379
▁формализация	-7380
▁формирование	-7381
▁формирования	-7382
▁человеческих	-7383
▁эвтрофикацию	-7384
▁экожүйелерін	-7385
▁экосистемной	-7386
▁эксплуатации	-7387
▁эксплуатацию	-7388
▁қабаттарында	-7389
▁қалдықтардың	-7390
▁қолданылмауы	-7391
▁қоныстарының	-7392
▁ұзақмерзімді	-7393
▁өнеркәсіптік	-7394
generalization	-7395
категориальных	-7396
▁Physiological	-7397
▁Precipitation	-7398
▁approximation	-7399
▁architectural	-7400
▁consequential	-7401
▁decomposition	-7402
▁heterogeneity	-7403
▁heterogeneous	-7404
▁modifications	-7405
▁normalization	-7406
▁observability	-7407
▁preprocessing	-7408
▁transpiration	-7409
▁Антропогенное	-7410
▁Вариативность	-7411
▁Генерализация	-7412
▁Дополнительно	-7413
▁Климатические	-7414
▁Строительство	-7415
▁апостериорные	-7416
▁байланыстарды	-7417
▁вариативность	-7418
▁вероятностных	-7419
▁водоснабжения	-7420
▁гидросфераның	-7421
▁доверительные	-7422
▁долгосрочного	-7423
▁желілеріндегі	-7424
▁задерживается	-7425
▁игнорировании	-7426
▁использование	-7427
▁климатических	-7428
▁конденсацияны	-7429
▁күрделілігіне	-7430
▁логистической	-7431
▁местообитания	-7432
▁минералдардың	-7433
▁мониторингтеу	-7434
▁необходимость	-7435
▁обусловленной	-7436
▁океаническими	-7437
▁органического	-7438
▁пайдаланылады	-7439
▁параметрлерді	-7440
▁переобучением	-7441
▁поверхностный	-7442
▁поверхностных	-7443
▁повторяемость	-7444
▁подушковидные	-7445
▁пользователей	-7446
▁потребоваться	-7447
▁превосходство	-7448
▁предсказывать	-7449
▁промышленными	-7450
▁проникновения	-7451
▁проницаемости	-7452
▁просачивается	-7453
▁распределений	-7454
▁распределению	-7455
▁распределения	-7456
▁рассматривают	-7457
▁регулирование	-7458
▁сглаживающего	-7459
▁соответствует	-7460
▁сопоставимому	-7461
▁сосредоточена	-7462
▁статистически	-7463
▁стратегиялары	-7464
▁субальпийские	-7465
▁существование	-7466
▁тасымалдануын	-7467
▁температурасы	-7468
▁температурные	-7469
▁тренировочную	-7470
▁тренировочный	-7471
▁тәжірибелерін	-7472
▁упорядоченный	-7473
▁участвовавших	-7474
▁физиологиялық	-7475
▁фрагментирует	-7476
▁характеристик	-7477
▁хозяйственной	-7478
▁холодолюбивых	-7479
▁экологические	-7480
▁Өсімдіктердің	-7481
▁өсімдіктерден	-7482
▁Regularization	-7483
▁classification	-7484
▁eutrophication	-7485
▁explainability	-7486
▁generalization	-7487
▁hyperparameter	-7488
▁interpretation	-7489
▁regularization	-7490
▁simultaneously	-7491
▁Гиперпараметры	-7492
▁антропогенному	-7493
▁атқарғандықтан	-7494
▁беспозвоночных	-7495
▁биологическими	-7496
▁вегетационного	-7497
▁возобновляемым	-7498
▁возобновляемых	-7499
▁восстановление	-7500
▁второстепенных	-7501
▁гиперплоскость	-7502
▁закономерность	-7503
▁информатиканың	-7504
▁инфраструктуры	-7505
▁использоваться	-7506
▁категориальных	-7507
▁несущественным	-7508
▁обеспечивающее	-7509
▁обеспечивающие	-7510
▁обеспечивающим	-7511
▁обстоятельство	-7512
▁определённость	-7513
▁поверхностного	-7514
▁поддерживающий	-7515
▁пользователями	-7516
▁предотвращения	-7517
▁преобразование	-7518
▁проектирования	-7519
▁промышленности	-7520
▁распределяются	-7521
▁распределённый	-7522
▁регламенттерге	-7523
▁регуляризацией	-7524
▁способствовать	-7525
▁статистические	-7526
▁статистических	-7527
▁температуралық	-7528
▁температурного	-7529
▁технологиялары	-7530
▁транспирациясы	-7531
▁тундроподобные	-7532
▁характеристика	-7533
▁шаруашылығының	-7534
▁эвтрофикацияға	-7535
▁Қорытындысында	-7536
▁әркелкілігімен	-7537
▁classifications	-7538
▁experimentation	-7539
▁representations	-7540
▁алгоритмической	-7541
▁биоразнообразия	-7542
▁водохранилищами	-7543
▁гиперпараметров	-7544
▁долговременного	-7545
▁интерпретацияға	-7546
▁комбинированные	-7547
▁неоднородностью	-7548
▁преимущественно	-7549
▁прогнозирования	-7550
▁репрезентативті	-7551
▁систематических	-7552
▁систематическое	-7553
▁соответствовать	-7554
▁соответствующие	-7555
▁түсіндірмелілік	-7556
▁характеризуются	-7557
Aq	-7558
As	-7559
Ba	-7560
Ch	-7561
Co	-7562
Cr	-7563
Da	-7564
Di	-7565
Ev	-7566
Fa	-7567
Fe	-7568
Gr	-7569
Im	-7570
In	-7571
Le	-7572
Mo	-7573
Ov	-7574
Ph	-7575
Ro	-7576
Tr	-7577
Wa	-7578
ai	-7579
aq	-7580
au	-7581
ba	-7582
bj	-7583
bu	-7584
by	-7585
cr	-7586
cu	-7587
da	-7588
de	-7589
dn	-7590
ea	-7591
ef	-7592
ei	-7593
eq	-7594
eu	-7595
fo	-7596
fr	-7597
gg	-7598
gi	-7599
Hy	-7600
ML	-7601
No	-7602
cs	-7603
dw	-7604
ev	-7605
gm	-7606
ha	-7607
hm	-7608
hu	-7609
hw	-7610
ia	-7611
ik	-7612
io	-7613
ka	-7614
ls	-7615
lt	-7616
ma	-7617
mf	-7618
mi	-7619
na	-7620
nc	-7621
nd	-7622
ng	-7623
ni	-7624
nn	-7625
nt	-7626
ny	-7627
oc	-7628
oe	-7629
og	-7630
oi	-7631
op	-7632
ou	-7633
ov	-7634
pa	-7635
pe	-7636
pm	-7637
pr	-7638
ps	-7639
pu	-7640
rb	-7641
rf	-7642
rg	-7643
rk	-7644
rm	-7645
rn	-7646
rt	-7647
rv	-7648
rw	-7649
sh	-7650
sy	-7651
ta	-7652
tb	-7653
tc	-7654
tf	-7655
ti	-7656
tn	-7657
tr	-7658
tt	-7659
tu	-7660
uc	-7661
ue	-7662
vi	-7663
we	-7664
wh	-7665
wi	-7666
ws	-7667
xp	-7668
yc	-7669
yd	-7670
yg	-7671
yi	-7672
Ад	-7673
Аз	-7674
Ба	-7675
Бұ	-7676
Ве	-7677
Ге	-7678
Гр	-7679
Да	-7680
До	-7681
Же	-7682
Ис	-7683
Ма	-7684
Ме	-7685
Мұ	-7686
Но	-7687
Он	-7688
Пр	-7689
Со	-7690
Сы	-7691
Те	-7692
Ти	-7693
Тұ	-7694
Эк	-7695
Эт	-7696
аб	-7697
ае	-7698
аз	-7699
AU	-7700
Fr	-7701
Li	-7702
Ma	-7703
Th	-7704
ey	-7705
gs	-7706
hl	-7707
je	-7708
ne	-7709
nv	-7710
ox	-7711
sn	-7712
tl	-7713
Дл	-7714
Ол	-7715
То	-7716
ак	-7717
ач	-7718
аю	-7719
ағ	-7720
ба	-7721
бк	-7722
бн	-7723
бр	-7724
бщ	-7725
бъ	-7726
бы	-7727
бұ	-7728
бө	-7729
вк	-7730
вн	-7731
вр	-7732
ву	-7733
вх	-7734
вя	-7735
гт	-7736
гу	-7737
дг	-7738
дд	-7739
дк	-7740
дл	-7741
дн	-7742
дё	-7743
дұ	-7744
еа	-7745
ец	-7746
ещ	-7747
ею	-7748
жн	-7749
жо	-7750
жұ	-7751
жә	-7752
зк	-7753
зр	-7754
зы	-7755
иг	-7756
иж	-7757
ил	-7758
ио	-7759
иц	-7760
иғ	-7761
йг	-7762
йе	-7763
йл	-7764
йм	-7765
йн	-7766
йр	-7767
йт	-7768
йч	-7769
кж	-7770
кк	-7771
кн	-7772
лк	-7773
лғ	-7774
мд	-7775
мт	-7776
мү	-7777
нб	-7778
нд	-7779
нн	-7780
нс	-7781
ну	-7782
нц	-7783
нч	-7784
нш	-7785
нә	-7786
оо	-7787
оэ	-7788
оё	-7789
оғ	-7790
оқ	-7791
по	-7792
пр	-7793
пс	-7794
пу	-7795
рв	-7796
рз	-7797
рк	-7798
рт	-7799
De	-7800
He	-7801
eh	-7802
fl	-7803
gy	-7804
ll	-7805
lp	-7806
nf	-7807
pi	-7808
rc	-7809
si	-7810
ua	-7811
va	-7812
Ди	-7813
На	-7814
ве	-7815
вы	-7816
дб	-7817
жа	-7818
иа	-7819
иі	-7820
кө	-7821
лд	-7822
нж	-7823
ою	-7824
рл	-7825
рх	-7826
рь	-7827
ря	-7828
рғ	-7829
рқ	-7830
св	-7831
сг	-7832
се	-7833
си	-7834
со	-7835
сш	-7836
сь	-7837
сқ	-7838
тб	-7839
тв	-7840
тк	-7841
тм	-7842
тн	-7843
тя	-7844
тө	-7845
уа	-7846
уб	-7847
уд	-7848
уе	-7849
ук	-7850
ум	-7851
фа	-7852
фе	-7853
фр	-7854
фт	-7855
хо	-7856
це	-7857
цу	-7858
ча	-7859
чк	-7860
чт	-7861
чш	-7862
шк	-7863
шо	-7864
шы	-7865
ші	-7866
шқ	-7867
ща	-7868
щи	-7869
щу	-7870
щё	-7871
ъе	-7872
ъя	-7873
ыб	-7874
ьд	-7875
ьз	-7876
ьн	-7877
ьт	-7878
ьш	-7879
ья	-7880
эк	-7881
эл	-7882
эр	-7883
яр	-7884
яю	-7885
яқ	-7886
іг	-7887
ғу	-7888
қы	-7889
құ	-7890
ңг	-7891
ңу	-7892
ңі	-7893
үл	-7894
үм	-7895
үс	-7896
ұм	-7897
ұя	-7898
ұқ	-7899
Fo	-7900
Wh	-7901
bi	-7902
cc	-7903
dd	-7904
do	-7905
ex	-7906
fe	-7907
hd	-7908
np	-7909
nu	-7910
oo	-7911
oy	-7912
rs	-7913
sp	-7914
tm	-7915
ui	-7916
uo	-7917
wo	-7918
ym	-7919
вт	-7920
дт	-7921
жд	-7922
зе	-7923
ир	-7924
йд	-7925
мл	-7926
пе	-7927
рг	-7928
рд	-7929
тс	-7930
тұ	-7931
ыр	-7932
ың	-7933
эт	-7934
юы	-7935
үр	-7936
әй	-7937
әл	-7938
ән	-7939
әр	-7940
әс	-7941
әт	-7942
Өс	-7943
өб	-7944
өз	-7945
өм	-7946
өс	-7947
өт	-7948
▁i	-7949
▁k	-7950
▁u	-7951
▁ю	-7952
Con	-7953
Hem	-7954
Man	-7955
Mon	-7956
Nat	-7957
Nor	-7958
Pre	-7959
Pro	-7960
The	-7961
ala	-7962
anc	-7963
apo	-7964
atc	-7965
ati	-7966
att	-7967
atu	-7968
cal	-7969
cce	-7970
cit	-7971
cre	-7972
dap	-7973
der	-7974
dre	-7975
eal	-7976
ean	-7977
eer	-7978
ele	-7979
enl	-7980
era	-7981
err	-7982
erw	-7983
fic	-7984
hat	-7985
hei	-7986
hey	-7987
hin	-7988
his	-7989
hro	-7990
iat	-7991
ien	-7992
ift	-7993
inf	-7994
isc	-7995
ite	-7996
kin	-7997
lat	-7998
lec	-7999
Gl	-8000
bl	-8001
dl	-8002
dr	-8003
dy	-8004
ee	-8005
eo	-8006
fu	-8007
ga	-8008
gh	-8009
gl	-8010
go	-8011
ho	-8012
hy	-8013
ib	-8014
ie	-8015
mu	-8016
nm	-8017
no	-8018
ob	-8019
rd	-8020
rl	-8021
rr	-8022
tw	-8023
wn	-8024
xh	-8025
ya	-8026
Ал	-8027
Па	-8028
Сө	-8029
вс	-8030
мп	-8031
пі	-8032
сә	-8033
ңы	-8034
ұб	-8035
әң	-8036
▁q	-8037
Ear	-8038
ian	-8039
lex	-8040
lid	-8041
mes	-8042
mic	-8043
mil	-8044
min	-8045
mor	-8046
mpa	-8047
nat	-8048
oic	-8049
oin	-8050
ona	-8051
one	-8052
onf	-8053
onn	-8054
ono	-8055
onv	-8056
oot	-8057
ora	-8058
ork	-8059
osy	-8060
otr	-8061
pla	-8062
pos	-8063
ran	-8064
rea	-8065
reg	-8066
rel	-8067
rep	-8068
req	-8069
ret	-8070
rev	-8071
riv	-8072
roc	-8073
roj	-8074
rre	-8075
rri	-8076
sel	-8077
sin	-8078
tan	-8079
tim	-8080
tra	-8081
tri	-8082
uar	-8083
ude	-8084
uen	-8085
unc	-8086
upl	-8087
utf	-8088
vat	-8089
wal	-8090
whe	-8091
wly	-8092
yet	-8093
Вал	-8094
Жер	-8095
Ком	-8096
Ней	-8097
Нор	-8098
Пра	-8099
gu	-8100
hr	-8101
lw	-8102
sk	-8103
sm	-8104
wp	-8105
Ан	-8106
Ағ	-8107
Го	-8108
Де	-8109
Др	-8110
Жа	-8111
Ка	-8112
Ке	-8113
Мо	-8114
Мы	-8115
Та	-8116
аг	-8117
аф	-8118
ац	-8119
вл	-8120
до	-8121
дш	-8122
йб	-8123
йі	-8124
лг	-8125
мя	-8126
нт	-8127
нф	-8128
рж	-8129
рн	-8130
рп	-8131
ср	-8132
ул	-8133
ца	-8134
іл	-8135
ұщ	-8136
Өн	-8137
▁я	-8138
▁ғ	-8139
Gro	-8140
ero	-8141
fus	-8142
ini	-8143
mar	-8144
orp	-8145
tat	-8146
yan	-8147
Пре	-8148
При	-8149
Про	-8150
Тау	-8151
Тем	-8152
авш	-8153
ада	-8154
аза	-8155
айт	-8156
ака	-8157
аки	-8158
алг	-8159
алт	-8160
анс	-8161
асш	-8162
атм	-8163
атч	-8164
ауп	-8165
ауғ	-8166
ақт	-8167
бер	-8168
бит	-8169
бки	-8170
бно	-8171
бов	-8172
бра	-8173
вал	-8174
ваю	-8175
вия	-8176
вна	-8177
вно	-8178
вра	-8179
ген	-8180
гет	-8181
дне	-8182
дны	-8183
дре	-8184
дст	-8185
дығ	-8186
еан	-8187
ело	-8188
емл	-8189
ему	-8190
енк	-8191
енм	-8192
енн	-8193
еня	-8194
ені	-8195
еод	-8196
ера	-8197
ерл	-8198
еро	-8199
Ab	-8200
Al	-8201
eb	-8202
lg	-8203
tp	-8204
yo	-8205
гд	-8206
гл	-8207
дп	-8208
дә	-8209
жи	-8210
зг	-8211
зд	-8212
иф	-8213
лн	-8214
лт	-8215
лқ	-8216
мә	-8217
ош	-8218
пл	-8219
шт	-8220
ье	-8221
яе	-8222
қп	-8223
ңа	-8224
ңд	-8225
ұз	-8226
ali	-8227
ath	-8228
flo	-8229
gic	-8230
onc	-8231
rad	-8232
raz	-8233
tin	-8234
uno	-8235
war	-8236
zin	-8237
Мод	-8238
алд	-8239
атп	-8240
атт	-8241
вых	-8242
ерр	-8243
еря	-8244
есс	-8245
етс	-8246
етя	-8247
ече	-8248
жал	-8249
жел	-8250
жно	-8251
жны	-8252
зав	-8253
заи	-8254
зда	-8255
зен	-8256
зін	-8257
ибо	-8258
ивы	-8259
идр	-8260
ией	-8261
или	-8262
иня	-8263
иол	-8264
иот	-8265
исп	-8266
ици	-8267
ияғ	-8268
йес	-8269
йро	-8270
йст	-8271
йфа	-8272
кас	-8273
каю	-8274
кер	-8275
кив	-8276
кис	-8277
кол	-8278
кох	-8279
кри	-8280
ксп	-8281
кст	-8282
кто	-8283
кту	-8284
кци	-8285
лаб	-8286
лго	-8287
лов	-8288
луы	-8289
мал	-8290
мас	-8291
маш	-8292
мды	-8293
мел	-8294
миз	-8295
мир	-8296
мис	-8297
мич	-8298
мию	-8299
Ne	-8300
St	-8301
dv	-8302
ub	-8303
xc	-8304
zi	-8305
Ст	-8306
дз	-8307
дх	-8308
зо	-8309
иб	-8310
йс	-8311
мб	-8312
мн	-8313
мі	-8314
мө	-8315
нь	-8316
ні	-8317
ои	-8318
оц	-8319
ощ	-8320
рр	-8321
сб	-8322
сн	-8323
уя	-8324
уғ	-8325
хн	-8326
чн	-8327
чр	-8328
чу	-8329
ьк	-8330
ққ	-8331
fer	-8332
geo	-8333
gor	-8334
ire	-8335
ked	-8336
rst	-8337
ser	-8338
анш	-8339
ват	-8340
даю	-8341
ейл	-8342
зас	-8343
заю	-8344
зер	-8345
ивт	-8346
ира	-8347
кот	-8348
лай	-8349
лет	-8350
мия	-8351
мов	-8352
мос	-8353
мта	-8354
мын	-8355
наб	-8356
наг	-8357
нан	-8358
нац	-8359
нва	-8360
нег	-8361
нен	-8362
низ	-8363
нир	-8364
нки	-8365
нно	-8366
нны	-8367
нож	-8368
нош	-8369
нст	-8370
нып	-8371
овк	-8372
овт	-8373
ову	-8374
овы	-8375
одз	-8376
оди	-8377
одо	-8378
оду	-8379
одч	-8380
ойл	-8381
ола	-8382
олм	-8383
оля	-8384
оми	-8385
онт	-8386
оот	-8387
орл	-8388
оры	-8389
орь	-8390
оте	-8391
оқт	-8392
пан	-8393
пен	-8394
печ	-8395
пна	-8396
пос	-8397
псі	-8398
пін	-8399
0.	-8400
1»	-8401
Cy	-8402
Ea	-8403
Ec	-8404
En	-8405
Er	-8406
Ex	-8407
Hu	-8408
It	-8409
Na	-8410
On	-8411
Pr	-8412
RO	-8413
sa	-8414
vo	-8415
wt	-8416
za	-8417
ze	-8418
Ат	-8419
Бі	-8420
Ва	-8421
Жо	-8422
аё	-8423
жү	-8424
лп	-8425
мм	-8426
пи	-8427
рф	-8428
см	-8429
ха	-8430
ще	-8431
эв	-8432
ял	-8433
ғд	-8434
қо	-8435
әу	-8436
өң	-8437
▁B	-8438
ais	-8439
cei	-8440
ena	-8441
gat	-8442
gin	-8443
nam	-8444
sem	-8445
tab	-8446
Исп	-8447
алғ	-8448
елг	-8449
енч	-8450
еют	-8451
зны	-8452
иос	-8453
ияс	-8454
ияю	-8455
йки	-8456
орм	-8457
орт	-8458
пра	-8459
рай	-8460
рал	-8461
рау	-8462
раф	-8463
рде	-8464
реи	-8465
рии	-8466
рио	-8467
рир	-8468
рис	-8469
рмы	-8470
рне	-8471
рно	-8472
рны	-8473
рое	-8474
рои	-8475
рст	-8476
рті	-8477
руз	-8478
рыл	-8479
сал	-8480
сей	-8481
сен	-8482
ска	-8483
ски	-8484
сно	-8485
сны	-8486
сов	-8487
сон	-8488
спа	-8489
спл	-8490
спы	-8491
стб	-8492
сті	-8493
сым	-8494
тда	-8495
тес	-8496
тия	-8497
тми	-8498
тму	-8499
Re	-8500
Se	-8501
So	-8502
Su	-8503
af	-8504
ax	-8505
bg	-8506
bt	-8507
df	-8508
dg	-8509
ht	-8510
ki	-8511
lm	-8512
nk	-8513
nl	-8514
oa	-8515
oj	-8516
rp	-8517
sf	-8518
sq	-8519
uf	-8520
uv	-8521
ux	-8522
wl	-8523
wm	-8524
ye	-8525
zo	-8526
Аб	-8527
Аг	-8528
Ар	-8529
Аң	-8530
Не	-8531
По	-8532
См	-8533
Ув	-8534
бс	-8535
кц	-8536
лл	-8537
уф	-8538
ьс	-8539
ью	-8540
ян	-8541
ұп	-8542
ece	-8543
ege	-8544
eit	-8545
oni	-8546
sif	-8547
uns	-8548
вым	-8549
диа	-8550
ену	-8551
иял	-8552
нав	-8553
обл	-8554
оен	-8555
онд	-8556
руя	-8557
тыр	-8558
тін	-8559
уат	-8560
ули	-8561
уль	-8562
упл	-8563
ури	-8564
уру	-8565
усл	-8566
уст	-8567
уық	-8568
уғы	-8569
фия	-8570
фра	-8571
фті	-8572
хат	-8573
чат	-8574
чвы	-8575
чер	-8576
чет	-8577
чия	-8578
чка	-8579
чна	-8580
шал	-8581
шат	-8582
шем	-8583
шли	-8584
шын	-8585
шім	-8586
шін	-8587
щей	-8588
щем	-8589
щен	-8590
щны	-8591
ыды	-8592
ыза	-8593
ыро	-8594
ысо	-8595
ықп	-8596
ықс	-8597
ықт	-8598
ько	-8599
Би	-8600
Во	-8601
Вы	-8602
Ги	-8603
Жи	-8604
Жі	-8605
Из	-8606
Ко	-8607
Кр	-8608
Ми	-8609
Нә	-8610
Об	-8611
Ор	-8612
Ос	-8613
От	-8614
Оқ	-8615
Пе	-8616
Су	-8617
Ус	-8618
ип	-8619
йқ	-8620
кв	-8621
лж	-8622
лс	-8623
нм	-8624
нғ	-8625
пн	-8626
пп	-8627
рө	-8628
сф	-8629
тд	-8630
тч	-8631
ух	-8632
хи	-8633
хр	-8634
шн	-8635
ьп	-8636
эп	-8637
юв	-8638
яд	-8639
ұн	-8640
әд	-8641
erg	-8642
ger	-8643
lth	-8644
rec	-8645
urv	-8646
var	-8647
Дре	-8648
алс	-8649
анғ	-8650
аул	-8651
ерк	-8652
еры	-8653
ерь	-8654
иен	-8655
исб	-8656
ита	-8657
нео	-8658
пес	-8659
хал	-8660
ьно	-8661
ьст	-8662
эро	-8663
ютт	-8664
юча	-8665
юын	-8666
яем	-8667
яны	-8668
ёны	-8669
ілі	-8670
інб	-8671
інг	-8672
інд	-8673
інш	-8674
іні	-8675
іра	-8676
ірд	-8677
іре	-8678
ғда	-8679
ғыл	-8680
ңда	-8681
ңді	-8682
ұза	-8683
әне	-8684
өлі	-8685
▁af	-8686
▁ai	-8687
▁au	-8688
▁cy	-8689
▁do	-8690
▁ec	-8691
▁eu	-8692
▁fa	-8693
▁fi	-8694
▁fu	-8695
▁hi	-8696
▁oc	-8697
▁ot	-8698
▁ov	-8699
ащ	-8700
вв	-8701
вп	-8702
гн	-8703
дс	-8704
дя	-8705
ео	-8706
ея	-8707
её	-8708
жк	-8709
жё	-8710
зл	-8711
зғ	-8712
иы	-8713
кр	-8714
кш	-8715
нв	-8716
сц	-8717
уг	-8718
ун	-8719
фо	-8720
фу	-8721
шл	-8722
шу	-8723
ыв	-8724
ыд	-8725
юю	-8726
яя	-8727
яғ	-8728
ёс	-8729
ід	-8730
үн	-8731
ұй	-8732
әш	-8733
өп	-8734
өр	-8735
өш	-8736
fre	-8737
ish	-8738
ito	-8739
ont	-8740
son	-8741
елд	-8742
етк	-8743
етр	-8744
еңг	-8745
зво	-8746
инф	-8747
иян	-8748
нол	-8749
нық	-8750
одк	-8751
олё	-8752
рас	-8753
рат	-8754
▁cu	-8755
▁sq	-8756
▁tu	-8757
▁Ор	-8758
▁Па	-8759
▁ад	-8760
▁бы	-8761
▁бұ	-8762
▁вк	-8763
▁вр	-8764
▁вт	-8765
▁вх	-8766
▁ди	-8767
▁дл	-8768
▁дұ	-8769
▁ең	-8770
▁жы	-8771
▁жі	-8772
▁жү	-8773
▁зо	-8774
▁им	-8775
▁ки	-8776
▁кр	-8777
▁ме	-8778
▁мі	-8779
▁мү	-8780
▁оз	-8781
▁ок	-8782
▁па	-8783
▁пр	-8784
▁пу	-8785
▁сл	-8786
▁см	-8787
▁ср	-8788
▁сы	-8789
▁те	-8790
▁тё	-8791
▁уг	-8792
▁ур	-8793
▁фа	-8794
▁ча	-8795
▁эф	-8796
▁әд	-8797
adow	-8798
ails	-8799
аи	-8800
бх	-8801
вш	-8802
гк	-8803
гм	-8804
дв	-8805
дч	-8806
дъ	-8807
дь	-8808
еи	-8809
зя	-8810
иш	-8811
йо	-8812
лб	-8813
лё	-8814
мғ	-8815
мұ	-8816
нз	-8817
нұ	-8818
оф	-8819
рш	-8820
сд	-8821
сж	-8822
сх	-8823
сү	-8824
тл	-8825
тщ	-8826
тё	-8827
тә	-8828
ущ	-8829
хе	-8830
хл	-8831
шө	-8832
щн	-8833
ьф	-8834
ёр	-8835
ңб	-8836
ұх	-8837
әж	-8838
For	-8839
ach	-8840
erf	-8841
erl	-8842
itr	-8843
nan	-8844
reu	-8845
rop	-8846
Дан	-8847
айл	-8848
анд	-8849
бст	-8850
ган	-8851
ене	-8852
есл	-8853
етт	-8854
ога	-8855
сар	-8856
ыты	-8857
ұны	-8858
▁ил	-8859
alin	-8860
alon	-8861
anet	-8862
anis	-8863
ardn	-8864
arit	-8865
asel	-8866
aset	-8867
atit	-8868
cces	-8869
cern	-8870
cial	-8871
cien	-8872
cier	-8873
cies	-8874
core	-8875
ctur	-8876
dent	-8877
dres	-8878
duct	-8879
eliz	-8880
enan	-8881
enti	-8882
eral	-8883
erar	-8884
erat	-8885
erce	-8886
erre	-8887
eter	-8888
gate	-8889
graz	-8890
ilab	-8891
ilit	-8892
imil	-8893
impl	-8894
inat	-8895
inis	-8896
isci	-8897
ispl	-8898
ited	-8899
мш	-8900
Қо	-8901
Құ	-8902
қм	-8903
әк	-8904
өг	-8905
өн	-8906
cts	-8907
iti	-8908
nct	-8909
uct	-8910
win	-8911
Ано	-8912
Вер	-8913
Ген	-8914
Дер	-8915
вер	-8916
вст	-8917
дач	-8918
ема	-8919
енг	-8920
енд	-8921
ено	-8922
ерд	-8923
ерн	-8924
еру	-8925
ерф	-8926
жер	-8927
зре	-8928
йма	-8929
лес	-8930
лио	-8931
нер	-8932
оги	-8933
онц	-8934
пле	-8935
сер	-8936
сст	-8937
ста	-8938
стк	-8939
стн	-8940
сто	-8941
стр	-8942
стт	-8943
сту	-8944
тен	-8945
тст	-8946
хем	-8947
чен	-8948
чёр	-8949
шер	-8950
ылғ	-8951
ұст	-8952
alid	-8953
inin	-8954
ithd	-8955
itic	-8956
llow	-8957
lude	-8958
mmun	-8959
mple	-8960
mpon	-8961
nals	-8962
nowp	-8963
onat	-8964
once	-8965
only	-8966
orab	-8967
orks	-8968
oros	-8969
pher	-8970
plit	-8971
rand	-8972
real	-8973
rele	-8974
riat	-8975
rier	-8976
role	-8977
sely	-8978
sess	-8979
ster	-8980
stor	-8981
stur	-8982
tent	-8983
tere	-8984
ties	-8985
udge	-8986
unal	-8987
ured	-8988
urre	-8989
usly	-8990
xist	-8991
Дост	-8992
Жікт	-8993
Инфи	-8994
Кали	-8995
Увел	-8996
авля	-8997
аемы	-8998
ажен	-8999
Fre	-9000
Lin	-9001
ana	-9002
ane	-9003
ang	-9004
ani	-9005
ann	-9006
ano	-9007
ban	-9008
bar	-9009
bin	-9010
can	-9011
cin	-9012
dan	-9013
din	-9014
esi	-9015
hab	-9016
ina	-9017
ind	-9018
inl	-9019
ino	-9020
inp	-9021
itt	-9022
man	-9023
mat	-9024
nin	-9025
pin	-9026
rin	-9027
uan	-9028
yin	-9029
Пер	-9030
ана	-9031
бны	-9032
гер	-9033
дыд	-9034
ерв	-9035
ерг	-9036
ерж	-9037
ерз	-9038
ерт	-9039
ету	-9040
жна	-9041
кре	-9042
олы	-9043
таш	-9044
цик	-9045
ыми	-9046
▁ba	-9047
▁ер	-9048
▁ик	-9049
ands	-9050
anin	-9051
eros	-9052
iods	-9053
verg	-9054
алай	-9055
алды	-9056
алын	-9057
амен	-9058
анич	-9059
анны	-9060
аның	-9061
арсы	-9062
арта	-9063
асно	-9064
асси	-9065
ассы	-9066
аств	-9067
асыр	-9068
атай	-9069
атал	-9070
атар	-9071
атер	-9072
атич	-9073
атно	-9074
атны	-9075
атты	-9076
атур	-9077
ауда	-9078
ауын	-9079
били	-9080
бных	-9081
вали	-9082
вени	-9083
вива	-9084
вной	-9085
вных	-9086
вому	-9087
воно	-9088
вств	-9089
гере	-9090
гері	-9091
гмен	-9092
граф	-9093
даем	-9094
даст	-9095
диен	-9096
дной	-9097
дікт	-9098
евым	-9099
Dat	-9100
Wat	-9101
aly	-9102
atm	-9103
ato	-9104
ats	-9105
cat	-9106
con	-9107
dat	-9108
del	-9109
eat	-9110
enc	-9111
eni	-9112
lon	-9113
mon	-9114
non	-9115
onl	-9116
onm	-9117
pat	-9118
pon	-9119
rat	-9120
ron	-9121
sat	-9122
str	-9123
uat	-9124
wat	-9125
yon	-9126
zat	-9127
zon	-9128
Гра	-9129
бею	-9130
дағ	-9131
дух	-9132
дым	-9133
раб	-9134
рад	-9135
рам	-9136
рац	-9137
раю	-9138
рағ	-9139
рив	-9140
ссм	-9141
уму	-9142
ыра	-9143
ьфи	-9144
ұра	-9145
▁em	-9146
▁si	-9147
▁wh	-9148
▁ак	-9149
▁пі	-9150
▁сб	-9151
▁сж	-9152
▁сн	-9153
▁сч	-9154
▁сі	-9155
▁сү	-9156
▁эл	-9157
abil	-9158
anic	-9159
atin	-9160
inab	-9161
itiz	-9162
ploy	-9163
ulat	-9164
xces	-9165
езең	-9166
ейде	-9167
ейна	-9168
елгі	-9169
елде	-9170
елел	-9171
елич	-9172
ельн	-9173
емен	-9174
емны	-9175
енен	-9176
енир	-9177
енны	-9178
енов	-9179
енін	-9180
ерал	-9181
ерас	-9182
ерер	-9183
ерес	-9184
ерка	-9185
ерки	-9186
ерна	-9187
еров	-9188
ерра	-9189
ерті	-9190
есно	-9191
естт	-9192
есты	-9193
етал	-9194
етан	-9195
етки	-9196
етра	-9197
етті	-9198
жива	-9199
Tre	-9200
een	-9201
ems	-9202
ere	-9203
omp	-9204
ree	-9205
rem	-9206
tre	-9207
urf	-9208
Бал	-9209
Кал	-9210
Кри	-9211
Оны	-9212
Усп	-9213
алл	-9214
алм	-9215
ало	-9216
ант	-9217
аны	-9218
бал	-9219
вны	-9220
вое	-9221
еал	-9222
елт	-9223
ины	-9224
йны	-9225
кал	-9226
кос	-9227
кін	-9228
мны	-9229
ноо	-9230
ныл	-9231
нын	-9232
оза	-9233
оло	-9234
они	-9235
отб	-9236
отн	-9237
пны	-9238
рач	-9239
рич	-9240
сла	-9241
сна	-9242
тны	-9243
чны	-9244
шны	-9245
ыда	-9246
ьны	-9247
ёра	-9248
▁cr	-9249
▁ic	-9250
▁pl	-9251
▁иг	-9252
▁ис	-9253
▁ыл	-9254
ires	-9255
ishe	-9256
reat	-9257
асуы	-9258
елев	-9259
елит	-9260
ерны	-9261
жном	-9262
жіри	-9263
засы	-9264
заци	-9265
здел	-9266
зент	-9267
зких	-9268
зные	-9269
иват	-9270
ивны	-9271
иден	-9272
инал	-9273
иско	-9274
исти	-9275
итан	-9276
ичии	-9277
ичия	-9278
казы	-9279
каны	-9280
каци	-9281
коро	-9282
кост	-9283
ксов	-9284
ктар	-9285
лард	-9286
лека	-9287
лиза	-9288
лотн	-9289
лшен	-9290
лыққ	-9291
ліне	-9292
мену	-9293
менч	-9294
меня	-9295
метр	-9296
миза	-9297
мыва	-9298
нака	-9299
erc	-9300
eri	-9301
ern	-9302
erp	-9303
ert	-9304
hil	-9305
lut	-9306
mer	-9307
ner	-9308
org	-9309
ply	-9310
wer	-9311
zar	-9312
але	-9313
алқ	-9314
ано	-9315
арқ	-9316
асу	-9317
бет	-9318
дно	-9319
ейе	-9320
еля	-9321
ета	-9322
ете	-9323
ети	-9324
иал	-9325
кей	-9326
кно	-9327
лно	-9328
ног	-9329
ноз	-9330
нор	-9331
нот	-9332
ожн	-9333
оно	-9334
осп	-9335
пно	-9336
рса	-9337
сет	-9338
сор	-9339
тик	-9340
тки	-9341
хно	-9342
чис	-9343
чно	-9344
яно	-9345
өле	-9346
▁la	-9347
▁Сө	-9348
▁ва	-9349
▁ви	-9350
▁вл	-9351
▁вн	-9352
▁вп	-9353
▁ош	-9354
erin	-9355
fide	-9356
iner	-9357
norm	-9358
odif	-9359
tand	-9360
алал	-9361
енки	-9362
енно	-9363
ерно	-9364
етет	-9365
етно	-9366
ласт	-9367
нара	-9368
неко	-9369
неод	-9370
ника	-9371
ничи	-9372
нный	-9373
нози	-9374
нори	-9375
нтер	-9376
нына	-9377
ныны	-9378
ныст	-9379
няти	-9380
обны	-9381
оват	-9382
овая	-9383
овек	-9384
овеч	-9385
овне	-9386
овре	-9387
оген	-9388
огов	-9389
одим	-9390
одов	-9391
одол	-9392
одот	-9393
одст	-9394
озни	-9395
озоб	-9396
озра	-9397
ойла	-9398
олез	-9399
etr	-9400
odi	-9401
oil	-9402
she	-9403
tar	-9404
Жан	-9405
Мет	-9406
анб	-9407
ато	-9408
бан	-9409
бри	-9410
ван	-9411
ейб	-9412
ето	-9413
жан	-9414
заг	-9415
зан	-9416
зац	-9417
иет	-9418
иза	-9419
кет	-9420
ліл	-9421
мад	-9422
мес	-9423
оем	-9424
пий	-9425
при	-9426
риа	-9427
риз	-9428
рий	-9429
рик	-9430
рил	-9431
рия	-9432
сан	-9433
тан	-9434
три	-9435
тті	-9436
хан	-9437
чан	-9438
шті	-9439
ынш	-9440
ытқ	-9441
яри	-9442
іри	-9443
қан	-9444
ұру	-9445
▁ма	-9446
▁мө	-9447
▁ог	-9448
▁ом	-9449
▁он	-9450
hand	-9451
lain	-9452
Вект	-9453
анал	-9454
емді	-9455
енет	-9456
ерри	-9457
етст	-9458
исим	-9459
йтар	-9460
лина	-9461
олет	-9462
олич	-9463
олос	-9464
ольз	-9465
ольк	-9466
ольш	-9467
онал	-9468
онда	-9469
онды	-9470
онки	-9471
орно	-9472
орны	-9473
орын	-9474
осту	-9475
отки	-9476
отре	-9477
очен	-9478
очны	-9479
пани	-9480
поль	-9481
равл	-9482
раса	-9483
реал	-9484
рево	-9485
реди	-9486
редп	-9487
реду	-9488
реды	-9489
рект	-9490
рени	-9491
реті	-9492
риал	-9493
риат	-9494
риме	-9495
риор	-9496
рлар	-9497
рные	-9498
рове	-9499
alu	-9500
esc	-9501
Вод	-9502
бел	-9503
бре	-9504
вре	-9505
дки	-9506
ела	-9507
еле	-9508
ели	-9509
елк	-9510
елу	-9511
елю	-9512
елё	-9513
елі	-9514
еят	-9515
жив	-9516
згі	-9517
иды	-9518
йел	-9519
лор	-9520
нақ	-9521
оре	-9522
очи	-9523
пре	-9524
рев	-9525
рег	-9526
рей	-9527
рел	-9528
рео	-9529
реп	-9530
реш	-9531
рре	-9532
ріс	-9533
сре	-9534
ссе	-9535
тей	-9536
тре	-9537
уел	-9538
цел	-9539
чел	-9540
чре	-9541
әре	-9542
▁Ch	-9543
▁da	-9544
▁sl	-9545
▁sn	-9546
▁sy	-9547
▁бе	-9548
▁бо	-9549
▁ке	-9550
bsol	-9551
dver	-9552
raph	-9553
sten	-9554
velo	-9555
алау	-9556
асса	-9557
елен	-9558
ельд	-9559
енгі	-9560
кров	-9561
одел	-9562
рани	-9563
рива	-9564
риро	-9565
роит	-9566
рокс	-9567
роми	-9568
роны	-9569
ріне	-9570
саци	-9571
ская	-9572
ских	-9573
ской	-9574
скох	-9575
след	-9576
слей	-9577
сных	-9578
ссия	-9579
стай	-9580
стал	-9581
стан	-9582
стви	-9583
стел	-9584
стен	-9585
степ	-9586
стер	-9587
стки	-9588
стко	-9589
стно	-9590
стны	-9591
стой	-9592
стол	-9593
стра	-9594
стре	-9595
стро	-9596
сыро	-9597
сіре	-9598
сқал	-9599
kes	-9600
loo	-9601
ама	-9602
емд	-9603
еса	-9604
иод	-9605
код	-9606
лді	-9607
лод	-9608
лым	-9609
ове	-9610
одб	-9611
одв	-9612
одг	-9613
одд	-9614
оде	-9615
одт	-9616
одх	-9617
одъ	-9618
одя	-9619
роп	-9620
уыл	-9621
ющу	-9622
ңге	-9623
▁pi	-9624
▁ta	-9625
▁ti	-9626
▁ty	-9627
▁кв	-9628
▁уя	-9629
anda	-9630
eren	-9631
gion	-9632
iona	-9633
odes	-9634
pres	-9635
sion	-9636
stal	-9637
Аном	-9638
алда	-9639
асын	-9640
боро	-9641
езны	-9642
енив	-9643
енку	-9644
етод	-9645
жени	-9646
ипич	-9647
кает	-9648
кают	-9649
ларғ	-9650
лени	-9651
лсіз	-9652
луат	-9653
мени	-9654
нени	-9655
обал	-9656
одны	-9657
оени	-9658
пени	-9659
рони	-9660
ссии	-9661
теді	-9662
тейт	-9663
тель	-9664
тени	-9665
терв	-9666
тобы	-9667
тыра	-9668
тыры	-9669
угов	-9670
улер	-9671
урам	-9672
урно	-9673
урса	-9674
урст	-9675
урсы	-9676
уфер	-9677
фект	-9678
филь	-9679
ходо	-9680
цени	-9681
цент	-9682
цина	-9683
циял	-9684
чени	-9685
шени	-9686
шері	-9687
штер	-9688
щени	-9689
ызық	-9690
ылда	-9691
ынны	-9692
ырақ	-9693
ысот	-9694
ысты	-9695
ытие	-9696
ыхат	-9697
ықты	-9698
ьные	-9699
alg	-9700
alp	-9701
alt	-9702
alw	-9703
art	-9704
fal	-9705
gal	-9706
hal	-9707
isp	-9708
mal	-9709
nal	-9710
phe	-9711
ral	-9712
raw	-9713
rut	-9714
sal	-9715
une	-9716
Сов	-9717
ард	-9718
арл	-9719
арт	-9720
вос	-9721
дке	-9722
дов	-9723
езо	-9724
кап	-9725
лек	-9726
нач	-9727
ова	-9728
ови	-9729
овл	-9730
овн	-9731
ово	-9732
око	-9733
уар	-9734
эва	-9735
ңде	-9736
▁ce	-9737
▁ci	-9738
▁ho	-9739
▁pe	-9740
▁Бұ	-9741
▁жё	-9742
▁ұқ	-9743
▁әк	-9744
Line	-9745
alan	-9746
anal	-9747
andl	-9748
ando	-9749
hort	-9750
istr	-9751
onal	-9752
ures	-9753
даци	-9754
ерси	-9755
здер	-9756
ияда	-9757
овал	-9758
ован	-9759
олуч	-9760
ород	-9761
раци	-9762
рной	-9763
сред	-9764
стов	-9765
учен	-9766
ымын	-9767
ютті	-9768
ющий	-9769
язки	-9770
ясат	-9771
ёрах	-9772
ікел	-9773
імсі	-9774
інше	-9775
ірне	-9776
іріс	-9777
ғынд	-9778
қару	-9779
үйгі	-9780
ұзды	-9781
өмен	-9782
▁Glo	-9783
▁War	-9784
▁all	-9785
▁aud	-9786
▁beh	-9787
▁bes	-9788
▁cat	-9789
▁cle	-9790
▁dat	-9791
▁def	-9792
▁del	-9793
▁det	-9794
▁dow	-9795
▁dra	-9796
▁dro	-9797
▁ear	-9798
▁ele	-9799
ben	-9800
cel	-9801
cen	-9802
ene	-9803
eng	-9804
eno	-9805
env	-9806
fil	-9807
icu	-9808
ime	-9809
lic	-9810
men	-9811
mis	-9812
pen	-9813
rot	-9814
sen	-9815
uil	-9816
wed	-9817
Дат	-9818
Нес	-9819
арж	-9820
арн	-9821
арс	-9822
арх	-9823
аря	-9824
арғ	-9825
ати	-9826
атқ	-9827
ашт	-9828
гте	-9829
дат	-9830
еме	-9831
зая	-9832
ияя	-9833
нат	-9834
неб	-9835
отк	-9836
пар	-9837
пот	-9838
рда	-9839
рых	-9840
сат	-9841
тат	-9842
уыс	-9843
чем	-9844
шар	-9845
щат	-9846
Қор	-9847
қат	-9848
ңар	-9849
үйе	-9850
▁fr	-9851
▁ук	-9852
▁чи	-9853
chic	-9854
omin	-9855
onen	-9856
ptim	-9857
алат	-9858
атри	-9859
ақты	-9860
ваци	-9861
дани	-9862
дегі	-9863
ерат	-9864
звод	-9865
кори	-9866
ктно	-9867
кіші	-9868
лена	-9869
малы	-9870
олож	-9871
птер	-9872
рақұ	-9873
стат	-9874
таша	-9875
▁ali	-9876
▁cen	-9877
▁eng	-9878
▁flo	-9879
▁gen	-9880
▁hyd	-9881
▁ind	-9882
▁inp	-9883
▁lar	-9884
▁loa	-9885
▁mak	-9886
▁mar	-9887
▁max	-9888
▁pra	-9889
▁reu	-9890
▁sat	-9891
▁sen	-9892
▁sha	-9893
▁sig	-9894
▁sul	-9895
▁sum	-9896
▁tar	-9897
▁tes	-9898
▁unc	-9899
irs	-9900
lle	-9901
pit	-9902
rac	-9903
sis	-9904
sit	-9905
uce	-9906
wit	-9907
бат	-9908
бив	-9909
бку	-9910
вол	-9911
гол	-9912
дыл	-9913
еол	-9914
ечи	-9915
ияд	-9916
йна	-9917
кат	-9918
кти	-9919
лды	-9920
над	-9921
наз	-9922
най	-9923
нак	-9924
нас	-9925
нды	-9926
олб	-9927
олг	-9928
олд	-9929
оле	-9930
оли	-9931
олн	-9932
олу	-9933
олю	-9934
олғ	-9935
она	-9936
пыл	-9937
рды	-9938
рол	-9939
роф	-9940
сия	-9941
тич	-9942
тна	-9943
уды	-9944
хол	-9945
қол	-9946
ұна	-9947
▁av	-9948
▁wa	-9949
▁дн	-9950
▁др	-9951
▁ды	-9952
erim	-9953
itat	-9954
onit	-9955
алго	-9956
анат	-9957
бкой	-9958
біре	-9959
дерд	-9960
езім	-9961
иялы	-9962
наст	-9963
овия	-9964
олды	-9965
олно	-9966
раққ	-9967
таци	-9968
ірет	-9969
▁wat	-9970
▁wel	-9971
▁wil	-9972
▁wit	-9973
▁Бай	-9974
▁Ген	-9975
▁Исп	-9976
▁Маш	-9977
▁Нор	-9978
▁Пай	-9979
▁Пер	-9980
▁Поч	-9981
▁Топ	-9982
▁айқ	-9983
▁алу	-9984
▁атқ	-9985
▁ауд	-9986
▁бап	-9987
▁бас	-9988
▁бая	-9989
▁бей	-9990
▁бер	-9991
▁бес	-9992
▁био	-9993
▁вал	-9994
▁вер	-9995
▁вре	-9996
▁даж	-9997
▁дай	-9998
▁дат	-9999
bes	-10000
des	-10001
hit	-10002
ita	-10003
itu	-10004
lis	-10005
lit	-10006
loa	-10007
lob	-10008
nes	-10009
nit	-10010
oit	-10011
olo	-10012
pes	-10013
ram	-10014
rog	-10015
ros	-10016
ses	-10017
tes	-10018
ves	-10019
vit	-10020
Кли	-10021
гии	-10022
діл	-10023
дір	-10024
защ	-10025
зді	-10026
иям	-10027
ияқ	-10028
йді	-10029
мді	-10030
нді	-10031
ниж	-10032
укт	-10033
ьді	-10034
іді	-10035
іне	-10036
әді	-10037
▁RO	-10038
▁di	-10039
▁dy	-10040
▁es	-10041
▁қы	-10042
alit	-10043
ctic	-10044
ding	-10045
enes	-10046
ging	-10047
imal	-10048
init	-10049
itab	-10050
ping	-10051
ring	-10052
trib	-10053
ular	-10054
wing	-10055
ying	-10056
алас	-10057
енді	-10058
ерді	-10059
коль	-10060
одий	-10061
руға	-10062
ңдал	-10063
▁war	-10064
▁дер	-10065
▁дли	-10066
▁дов	-10067
▁дож	-10068
▁дре	-10069
▁дру	-10070
▁жал	-10071
▁жам	-10072
▁жан	-10073
▁жиз	-10074
▁жиы	-10075
▁жұм	-10076
▁зад	-10077
▁зап	-10078
▁заң	-10079
▁изл	-10080
▁инж	-10081
▁инт	-10082
▁кал	-10083
▁кар	-10084
▁кат	-10085
▁ква	-10086
▁кер	-10087
▁кеш	-10088
▁кли	-10089
▁кре	-10090
▁кри	-10091
▁көз	-10092
▁көр	-10093
▁мау	-10094
▁маш	-10095
▁мор	-10096
▁мәң	-10097
▁наг	-10098
▁нар	-10099
cor	-10100
duc	-10101
ebs	-10102
for	-10103
hor	-10104
ior	-10105
lea	-10106
nor	-10107
ori	-10108
orl	-10109
oro	-10110
oru	-10111
pel	-10112
rox	-10113
stu	-10114
tor	-10115
vor	-10116
гия	-10117
емо	-10118
еск	-10119
жне	-10120
жни	-10121
зне	-10122
ине	-10123
ини	-10124
исе	-10125
иях	-10126
нев	-10127
нед	-10128
неж	-10129
нек	-10130
неп	-10131
неш	-10132
нич	-10133
орғ	-10134
пор	-10135
пті	-10136
роб	-10137
рок	-10138
роц	-10139
шыл	-10140
үне	-10141
▁aq	-10142
▁li	-10143
▁mi	-10144
▁ро	-10145
▁ың	-10146
ator	-10147
orat	-10148
stak	-10149
бные	-10150
ерия	-10151
есов	-10152
етро	-10153
инер	-10154
ияны	-10155
новы	-10156
обой	-10157
олне	-10158
ормы	-10159
пала	-10160
спре	-10161
▁har	-10162
▁mon	-10163
▁mor	-10164
▁Гор	-10165
▁вне	-10166
▁нас	-10167
▁нақ	-10168
▁нев	-10169
▁обо	-10170
▁оны	-10171
▁орм	-10172
▁ост	-10173
▁отд	-10174
▁отт	-10175
▁очи	-10176
▁пав	-10177
▁поз	-10178
▁пом	-10179
▁пон	-10180
▁поп	-10181
▁поч	-10182
▁пра	-10183
▁раб	-10184
▁реж	-10185
▁рел	-10186
▁сам	-10187
▁сая	-10188
▁сбо	-10189
▁сев	-10190
▁сел	-10191
▁сла	-10192
▁сли	-10193
▁сов	-10194
▁сра	-10195
▁ста	-10196
▁сте	-10197
▁сум	-10198
▁суш	-10199
elo	-10200
imu	-10201
nst	-10202
ole	-10203
ost	-10204
sta	-10205
ste	-10206
tur	-10207
Ада	-10208
бка	-10209
бро	-10210
дае	-10211
дас	-10212
дац	-10213
жде	-10214
ида	-10215
иор	-10216
иын	-10217
йда	-10218
йін	-10219
кты	-10220
лда	-10221
мда	-10222
мін	-10223
нда	-10224
роз	-10225
роч	-10226
рош	-10227
рін	-10228
ткі	-10229
уда	-10230
іну	-10231
ңін	-10232
ңір	-10233
▁bo	-10234
▁ha	-10235
▁pa	-10236
▁pr	-10237
▁pu	-10238
▁Ат	-10239
▁ас	-10240
▁ағ	-10241
▁аң	-10242
gies	-10243
onst	-10244
stan	-10245
stre	-10246
uris	-10247
анда	-10248
арда	-10249
даса	-10250
ерхн	-10251
етка	-10252
еткі	-10253
ляем	-10254
налм	-10255
олда	-10256
рада	-10257
рито	-10258
сист	-10259
стот	-10260
тиже	-10261
інді	-10262
ңару	-10263
▁gla	-10264
▁les	-10265
▁lin	-10266
▁ада	-10267
▁аны	-10268
▁аст	-10269
▁кор	-10270
▁тап	-10271
▁тас	-10272
▁тен	-10273
▁тең	-10274
▁тол	-10275
▁топ	-10276
▁тре	-10277
▁тұщ	-10278
▁ука	-10279
▁усл	-10280
▁фра	-10281
▁ыды	-10282
▁ықп	-10283
▁Қор	-10284
▁қағ	-10285
▁құн	-10286
▁құя	-10287
▁өті	-10288
ading	-10289
adver	-10290
ainab	-10291
aline	-10292
aling	-10293
anage	-10294
andar	-10295
anges	-10296
aning	-10297
arbon	-10298
ariab	-10299
aic	-10300
bst	-10301
glo	-10302
ich	-10303
ict	-10304
ile	-10305
lem	-10306
ley	-10307
ove	-10308
pac	-10309
pic	-10310
ple	-10311
sic	-10312
sti	-10313
stn	-10314
Дай	-10315
аем	-10316
ауі	-10317
бес	-10318
еес	-10319
емп	-10320
жес	-10321
жки	-10322
ием	-10323
иес	-10324
кес	-10325
тор	-10326
уем	-10327
ьки	-10328
▁It	-10329
▁ул	-10330
alle	-10331
erst	-10332
ican	-10333
icat	-10334
icit	-10335
isch	-10336
lect	-10337
oric	-10338
rais	-10339
reel	-10340
stic	-10341
util	-10342
атем	-10343
емес	-10344
емно	-10345
емін	-10346
ерем	-10347
есна	-10348
есны	-10349
инно	-10350
иров	-10351
йств	-10352
меря	-10353
низи	-10354
овки	-10355
овни	-10356
рики	-10357
стем	-10358
чень	-10359
чные	-10360
шибо	-10361
ытии	-10362
ңғай	-10363
▁agr	-10364
▁cas	-10365
▁inl	-10366
arian	-10367
asing	-10368
bsent	-10369
btain	-10370
chmar	-10371
cting	-10372
ement	-10373
ental	-10374
entat	-10375
faces	-10376
ffect	-10377
ffort	-10378
fline	-10379
ganis	-10380
gions	-10381
iance	-10382
ining	-10383
inked	-10384
ionat	-10385
istic	-10386
istri	-10387
itive	-10388
lease	-10389
levat	-10390
logic	-10391
lower	-10392
mical	-10393
orary	-10394
oring	-10395
orous	-10396
overf	-10397
parit	-10398
pisod	-10399
Whe	-10400
che	-10401
eca	-10402
hea	-10403
het	-10404
ila	-10405
Гор	-10406
заб	-10407
зад	-10408
зай	-10409
зам	-10410
зап	-10411
заң	-10412
йын	-10413
кор	-10414
кте	-10415
луб	-10416
нза	-10417
пти	-10418
ряз	-10419
скт	-10420
спо	-10421
цир	-10422
ынд	-10423
ынт	-10424
ыну	-10425
ынғ	-10426
яза	-10427
▁Ab	-10428
▁op	-10429
▁ou	-10430
▁ox	-10431
▁vo	-10432
▁чу	-10433
Data	-10434
uous	-10435
арлы	-10436
арын	-10437
астб	-10438
атор	-10439
есті	-10440
зада	-10441
зани	-10442
йных	-10443
ктна	-10444
ктор	-10445
ляют	-10446
наки	-10447
нили	-10448
орды	-10449
орки	-10450
осит	-10451
птес	-10452
реки	-10453
риза	-10454
спер	-10455
таст	-10456
умет	-10457
ынды	-10458
ынты	-10459
ющее	-10460
яющи	-10461
▁che	-10462
▁oro	-10463
▁red	-10464
▁ref	-10465
▁ren	-10466
▁req	-10467
▁Пра	-10468
▁мәд	-10469
▁обы	-10470
▁стр	-10471
▁шөг	-10472
azard	-10473
pment	-10474
pping	-10475
prove	-10476
raina	-10477
raint	-10478
ransp	-10479
rient	-10480
roces	-10481
sment	-10482
stent	-10483
tural	-10484
uding	-10485
uence	-10486
ulate	-10487
unity	-10488
utput	-10489
uture	-10490
veget	-10491
venly	-10492
xible	-10493
yance	-10494
Атриб	-10495
Балан	-10496
Инфер	-10497
абиль	-10498
авать	-10499
Cro	-10500
War	-10501
ara	-10502
arb	-10503
arl	-10504
arr	-10505
car	-10506
cep	-10507
ear	-10508
far	-10509
fro	-10510
har	-10511
lar	-10512
rob	-10513
rod	-10514
rou	-10515
rov	-10516
row	-10517
sar	-10518
tro	-10519
unt	-10520
Кей	-10521
бей	-10522
дот	-10523
ейд	-10524
ейн	-10525
ейі	-10526
зық	-10527
поч	-10528
уаш	-10529
фей	-10530
ыққ	-10531
қық	-10532
▁өл	-10533
aino	-10534
alar	-10535
arat	-10536
head	-10537
lear	-10538
nten	-10539
orar	-10540
quen	-10541
reci	-10542
tern	-10543
unit	-10544
ygen	-10545
авши	-10546
ажно	-10547
анса	-10548
бота	-10549
ерге	-10550
жных	-10551
ктик	-10552
мект	-10553
орти	-10554
прим	-10555
разу	-10556
рими	-10557
споз	-10558
стей	-10559
тных	-10560
чных	-10561
шных	-10562
ьных	-10563
қтал	-10564
▁Pro	-10565
▁fle	-10566
▁whe	-10567
▁воп	-10568
▁жап	-10569
▁нав	-10570
▁рез	-10571
▁реп	-10572
▁рес	-10573
alist	-10574
othil	-10575
pline	-10576
taint	-10577
terce	-10578
адной	-10579
ажную	-10580
айдал	-10581
алады	-10582
алдыр	-10583
алыст	-10584
анады	-10585
анизи	-10586
анных	-10587
антро	-10588
аракт	-10589
арала	-10590
араст	-10591
арбон	-10592
арени	-10593
арлар	-10594
арына	-10595
арған	-10596
астби	-10597
астит	-10598
астки	-10599
ase	-10600
cte	-10601
plo	-10602
ась	-10603
вни	-10604
дни	-10605
жей	-10606
жка	-10607
зко	-10608
зни	-10609
иас	-10610
йым	-10611
лир	-10612
мей	-10613
нил	-10614
плы	-10615
сас	-10616
сни	-10617
тай	-10618
чни	-10619
шей	-10620
шко	-10621
ыхл	-10622
қас	-10623
▁wi	-10624
▁Нә	-10625
▁уа	-10626
▁ус	-10627
▁ут	-10628
▁ух	-10629
enab	-10630
gens	-10631
oirs	-10632
verw	-10633
аник	-10634
арни	-10635
асан	-10636
асов	-10637
атас	-10638
бани	-10639
верх	-10640
деля	-10641
ейро	-10642
ейст	-10643
енті	-10644
идов	-10645
кест	-10646
ктей	-10647
няем	-10648
олни	-10649
онта	-10650
хани	-10651
цено	-10652
чани	-10653
ымал	-10654
▁spe	-10655
▁айы	-10656
▁бул	-10657
▁дей	-10658
▁пай	-10659
▁пои	-10660
▁пот	-10661
▁поя	-10662
▁түз	-10663
ribed	-10664
алған	-10665
асызд	-10666
асына	-10667
атады	-10668
атика	-10669
атына	-10670
байес	-10671
балан	-10672
бальп	-10673
белер	-10674
бност	-10675
ботку	-10676
вадра	-10677
ваемы	-10678
вения	-10679
вност	-10680
водит	-10681
воноч	-10682
гация	-10683
гімен	-10684
гінен	-10685
деулі	-10686
діксі	-10687
ейбір	-10688
ейлер	-10689
ектей	-10690
ектеу	-10691
елени	-10692
ельны	-10693
емной	-10694
емных	-10695
емост	-10696
енени	-10697
ениет	-10698
енные	-10699
Dis	-10700
aut	-10701
bed	-10702
cis	-10703
fra	-10704
isf	-10705
iso	-10706
iss	-10707
ois	-10708
rag	-10709
rap	-10710
rau	-10711
rce	-10712
ris	-10713
vis	-10714
бко	-10715
дев	-10716
дег	-10717
дка	-10718
ими	-10719
кам	-10720
кац	-10721
ког	-10722
кож	-10723
мик	-10724
мми	-10725
ока	-10726
ото	-10727
пте	-10728
упа	-10729
чко	-10730
▁bl	-10731
▁ev	-10732
asin	-10733
cean	-10734
cent	-10735
enly	-10736
entl	-10737
gent	-10738
ient	-10739
sent	-10740
stra	-10741
uent	-10742
user	-10743
Вали	-10744
аниз	-10745
анир	-10746
дерг	-10747
еани	-10748
енде	-10749
енка	-10750
ергі	-10751
ерде	-10752
еско	-10753
жани	-10754
заич	-10755
зако	-10756
кара	-10757
коно	-10758
лани	-10759
нако	-10760
овка	-10761
орми	-10762
оско	-10763
реде	-10764
рика	-10765
сани	-10766
▁alt	-10767
▁bar	-10768
▁fin	-10769
▁fre	-10770
▁fro	-10771
entar	-10772
enter	-10773
авном	-10774
аниза	-10775
аники	-10776
борки	-10777
ентті	-10778
епень	-10779
ептер	-10780
ердің	-10781
ерекш	-10782
ерени	-10783
ереоб	-10784
ерлер	-10785
ерные	-10786
ерсии	-10787
ертіп	-10788
ерхню	-10789
еские	-10790
еским	-10791
еской	-10792
есной	-10793
есные	-10794
есовс	-10795
еспоз	-10796
ества	-10797
естке	-10798
етали	-10799
Glo	-10800
bun	-10801
cti	-10802
ctu	-10803
eig	-10804
lik	-10805
llo	-10806
mun	-10807
oun	-10808
rab	-10809
run	-10810
slo	-10811
unn	-10812
Топ	-10813
ажн	-10814
ауа	-10815
вот	-10816
мау	-10817
мот	-10818
отв	-10819
оту	-10820
сот	-10821
сци	-10822
тот	-10823
фос	-10824
ций	-10825
цио	-10826
цип	-10827
▁Сы	-10828
erra	-10829
lass	-10830
race	-10831
rolo	-10832
roun	-10833
unct	-10834
арам	-10835
влаж	-10836
деуі	-10837
елкі	-10838
олот	-10839
отат	-10840
отна	-10841
отно	-10842
отны	-10843
отов	-10844
отор	-10845
отра	-10846
пная	-10847
реим	-10848
ттер	-10849
циал	-10850
циен	-10851
шара	-10852
▁Man	-10853
▁blo	-10854
▁clo	-10855
▁slo	-10856
▁Ком	-10857
▁быт	-10858
▁наб	-10859
▁наз	-10860
▁нау	-10861
▁нах	-10862
▁сул	-10863
▁сущ	-10864
Human	-10865
Where	-10866
uning	-10867
былға	-10868
етани	-10869
етров	-10870
жейді	-10871
жению	-10872
жетім	-10873
жимом	-10874
жимін	-10875
жники	-10876
жност	-10877
жүйел	-10878
затор	-10879
зацию	-10880
зност	-10881
зёрах	-10882
ивном	-10883
идаты	-10884
ислот	-10885
истич	-10886
итает	-10887
итыва	-10888
ичест	-10889
иялар	-10890
казал	-10891
кацию	-10892
колог	-10893
корре	-10894
ктива	-10895
ктная	-10896
ледни	-10897
лерге	-10898
лықта	-10899
ask	-10900
bil	-10901
eas	-10902
ilu	-10903
una	-10904
Бай	-10905
айқ	-10906
бай	-10907
вад	-10908
зли	-10909
йыл	-10910
ква	-10911
кли	-10912
лим	-10913
лин	-10914
лиц	-10915
лон	-10916
нсп	-10917
спе	-10918
тли	-10919
тыл	-10920
уыт	-10921
шай	-10922
ылу	-10923
яли	-10924
ғай	-10925
үші	-10926
▁ef	-10927
▁ep	-10928
asic	-10929
ench	-10930
ilar	-10931
vity	-10932
айыл	-10933
алыл	-10934
арыл	-10935
ваем	-10936
дава	-10937
екту	-10938
ельс	-10939
если	-10940
ияқт	-10941
кива	-10942
лине	-10943
лины	-10944
расп	-10945
рақт	-10946
рисп	-10947
спол	-10948
ылды	-10949
қтай	-10950
қтан	-10951
қтат	-10952
қтыл	-10953
қыны	-10954
▁mas	-10955
▁sur	-10956
▁Ада	-10957
asses	-10958
eness	-10959
альны	-10960
бания	-10961
ельді	-10962
ельст	-10963
емест	-10964
енива	-10965
жения	-10966
льном	-10967
лювия	-10968
матив	-10969
матты	-10970
мақты	-10971
менов	-10972
метра	-10973
наков	-10974
ниров	-10975
нност	-10976
нован	-10977
новым	-10978
номал	-10979
нымен	-10980
німді	-10981
обным	-10982
обных	-10983
овани	-10984
овски	-10985
одзем	-10986
одных	-10987
ожная	-10988
олдан	-10989
олени	-10990
олжен	-10991
ольки	-10992
ольше	-10993
омпле	-10994
онден	-10995
опыра	-10996
орных	-10997
отать	-10998
плина	-10999
abe	-11000
asi	-11001
asu	-11002
dim	-11003
gim	-11004
iab	-11005
imi	-11006
imp	-11007
lab	-11008
las	-11009
lim	-11010
phy	-11011
urn	-11012
uts	-11013
vab	-11014
wab	-11015
Мыс	-11016
гой	-11017
гок	-11018
гос	-11019
дго	-11020
зич	-11021
руі	-11022
рыс	-11023
тся	-11024
уго	-11025
ысл	-11026
ысу	-11027
ысқ	-11028
▁фу	-11029
▁өм	-11030
asiz	-11031
imat	-11032
imin	-11033
inim	-11034
scal	-11035
stim	-11036
арыс	-11037
гора	-11038
змен	-11039
инах	-11040
кции	-11041
мена	-11042
менд	-11043
него	-11044
одго	-11045
олго	-11046
омен	-11047
раға	-11048
рмел	-11049
таға	-11050
ылыс	-11051
ылығ	-11052
ымен	-11053
ысал	-11054
ысын	-11055
ьном	-11056
імен	-11057
▁lev	-11058
▁mel	-11059
▁tab	-11060
▁Мет	-11061
▁мож	-11062
▁эва	-11063
eason	-11064
iming	-11065
ransl	-11066
алдың	-11067
енмен	-11068
енсор	-11069
менде	-11070
менны	-11071
налым	-11072
олмен	-11073
омпро	-11074
пност	-11075
полно	-11076
ралат	-11077
ралық	-11078
расах	-11079
расты	-11080
рации	-11081
рацию	-11082
ращая	-11083
редго	-11084
редне	-11085
редни	-11086
редст	-11087
рение	-11088
рения	-11089
рибут	-11090
ровер	-11091
ровне	-11092
ровни	-11093
ровом	-11094
роени	-11095
ролог	-11096
ронут	-11097
рунта	-11098
рінде	-11099
but	-11100
ded	-11101
dge	-11102
eed	-11103
ela	-11104
eld	-11105
eli	-11106
gem	-11107
mel	-11108
net	-11109
nut	-11110
sed	-11111
ted	-11112
utb	-11113
utp	-11114
utr	-11115
utu	-11116
ved	-11117
vel	-11118
zed	-11119
клю	-11120
тог	-11121
уля	-11122
ута	-11123
чня	-11124
ange	-11125
ased	-11126
cted	-11127
edim	-11128
edro	-11129
elin	-11130
erly	-11131
mall	-11132
uted	-11133
utro	-11134
ажны	-11135
енты	-11136
ерит	-11137
жные	-11138
ктің	-11139
кция	-11140
мына	-11141
нные	-11142
пред	-11143
редг	-11144
редн	-11145
редо	-11146
редс	-11147
сные	-11148
цияс	-11149
цияғ	-11150
щами	-11151
щные	-11152
ьдер	-11153
ғыза	-11154
ңара	-11155
ұның	-11156
▁bel	-11157
▁oft	-11158
▁аль	-11159
▁үлк	-11160
eling	-11161
reate	-11162
uting	-11163
атные	-11164
гізгі	-11165
дация	-11166
емные	-11167
жание	-11168
знаки	-11169
кация	-11170
нация	-11171
одные	-11172
отные	-11173
оторо	-11174
очную	-11175
редот	-11176
сание	-11177
сацию	-11178
слени	-11179
сност	-11180
спред	-11181
ссмат	-11182
стает	-11183
сталы	-11184
ствов	-11185
стейт	-11186
стени	-11187
стных	-11188
стреч	-11189
строй	-11190
стырм	-11191
сында	-11192
сінбе	-11193
тарын	-11194
тация	-11195
тение	-11196
тност	-11197
тории	-11198
торин	-11199
Aqu	-11200
eur	-11201
hly	-11202
osp	-11203
urc	-11204
вит	-11205
доб	-11206
еоб	-11207
жит	-11208
зоб	-11209
зуч	-11210
ите	-11211
итт	-11212
иты	-11213
обо	-11214
обх	-11215
очн	-11216
руп	-11217
рут	-11218
сит	-11219
соб	-11220
тоб	-11221
уча	-11222
учш	-11223
ыру	-11224
ютн	-11225
іру	-11226
іңі	-11227
▁ur	-11228
atur	-11229
etal	-11230
idiz	-11231
urce	-11232
urit	-11233
urst	-11234
ажна	-11235
втро	-11236
дают	-11237
езоп	-11238
елге	-11239
етру	-11240
ечес	-11241
итно	-11242
ияют	-11243
йная	-11244
луби	-11245
необ	-11246
ниру	-11247
нооб	-11248
обит	-11249
обно	-11250
обст	-11251
одит	-11252
одоб	-11253
олют	-11254
орма	-11255
осым	-11256
рате	-11257
рают	-11258
реоб	-11259
руем	-11260
стит	-11261
стру	-11262
хода	-11263
циру	-11264
ымды	-11265
▁жақ	-11266
▁мәс	-11267
▁чел	-11268
▁чер	-11269
▁чре	-11270
Water	-11271
cerns	-11272
plies	-11273
pogra	-11274
uring	-11275
алары	-11276
ечени	-11277
иняют	-11278
лювий	-11279
нысты	-11280
ттыру	-11281
ублей	-11282
упная	-11283
урасы	-11284
урные	-11285
учающ	-11286
учени	-11287
уында	-11288
ующее	-11289
ферно	-11290
фраст	-11291
хност	-11292
ходит	-11293
ходов	-11294
ходом	-11295
худши	-11296
ценку	-11297
циаль	-11298
циясы	-11299
cri	-11300
qua	-11301
rif	-11302
rip	-11303
ағы	-11304
екс	-11305
зғы	-11306
оғы	-11307
руғ	-11308
рғы	-11309
ығы	-11310
ғыд	-11311
ғып	-11312
ғыт	-11313
city	-11314
dity	-11315
nort	-11316
orus	-11317
rior	-11318
sity	-11319
stri	-11320
tity	-11321
Дере	-11322
Тест	-11323
ауым	-11324
бров	-11325
еред	-11326
еств	-11327
есте	-11328
ести	-11329
естк	-11330
есто	-11331
имін	-11332
мақт	-11333
насы	-11334
нере	-11335
овий	-11336
рово	-11337
руды	-11338
руін	-11339
ғыда	-11340
ғыны	-11341
ңдеу	-11342
▁deg	-11343
▁exh	-11344
▁lab	-11345
▁lim	-11346
▁lon	-11347
▁too	-11348
▁top	-11349
▁tri	-11350
▁ере	-11351
▁жаб	-11352
▁рад	-11353
▁рас	-11354
▁әді	-11355
ather	-11356
pical	-11357
urity	-11358
ерект	-11359
естов	-11360
лиров	-11361
онцен	-11362
рован	-11363
роват	-11364
чание	-11365
чение	-11366
чения	-11367
чност	-11368
шения	-11369
щение	-11370
щении	-11371
щения	-11372
ындар	-11373
ынтық	-11374
ысалы	-11375
ышать	-11376
ьност	-11377
этому	-11378
ючает	-11379
ючающ	-11380
яйств	-11381
ятель	-11382
ідірі	-11383
ірікт	-11384
іңуін	-11385
ғыдан	-11386
ғысын	-11387
қалуы	-11388
қасыз	-11389
қтылы	-11390
үйгіш	-11391
өлігі	-11392
▁Fres	-11393
▁Line	-11394
▁acce	-11395
▁adap	-11396
▁alon	-11397
▁biod	-11398
▁coll	-11399
Mod	-11400
hod	-11401
ood	-11402
uch	-11403
вом	-11404
воп	-11405
гіл	-11406
ево	-11407
егі	-11408
иво	-11409
йгі	-11410
лсі	-11411
нта	-11412
огу	-11413
пта	-11414
рта	-11415
таб	-11416
тад	-11417
тағ	-11418
чво	-11419
ыта	-11420
юще	-11421
▁гл	-11422
▁ря	-11423
▁фи	-11424
Over	-11425
fort	-11426
isod	-11427
sure	-11428
ture	-11429
urem	-11430
айта	-11431
арай	-11432
арал	-11433
арат	-11434
вооб	-11435
вост	-11436
гіне	-11437
дево	-11438
леду	-11439
негі	-11440
нито	-11441
ново	-11442
овав	-11443
огия	-11444
озда	-11445
осно	-11446
тада	-11447
такт	-11448
хара	-11449
цесс	-11450
ықта	-11451
ющим	-11452
▁deb	-11453
▁dee	-11454
▁dem	-11455
▁dev	-11456
▁sec	-11457
▁ste	-11458
▁tot	-11459
▁Ано	-11460
▁Оса	-11461
▁гов	-11462
▁год	-11463
▁гол	-11464
▁гру	-11465
▁заг	-11466
▁зас	-11467
▁мог	-11468
▁сво	-11469
▁тог	-11470
▁шар	-11471
asure	-11472
ilure	-11473
oding	-11474
sture	-11475
vapot	-11476
wable	-11477
алдау	-11478
арады	-11479
висит	-11480
мента	-11481
новку	-11482
ребов	-11483
тадан	-11484
▁cons	-11485
▁conv	-11486
▁coup	-11487
▁dece	-11488
▁deve	-11489
▁exhi	-11490
▁expl	-11491
▁frag	-11492
▁fres	-11493
▁hand	-11494
▁impl	-11495
▁infl	-11496
▁intr	-11497
▁lear	-11498
▁mead	-11499
amp	-11500
com	-11501
equ	-11502
hif	-11503
ife	-11504
ifi	-11505
nif	-11506
uif	-11507
бон	-11508
быт	-11509
вим	-11510
вля	-11511
зим	-11512
има	-11513
имі	-11514
оим	-11515
онн	-11516
сим	-11517
тым	-11518
хим	-11519
чим	-11520
щим	-11521
ымд	-11522
ымш	-11523
ымғ	-11524
ыти	-11525
ыто	-11526
қыт	-11527
aint	-11528
gain	-11529
ifer	-11530
main	-11531
алым	-11532
идат	-11533
имал	-11534
имия	-11535
обыт	-11536
онно	-11537
пада	-11538
рети	-11539
спыт	-11540
шікт	-11541
ысым	-11542
ытия	-11543
ытын	-11544
▁abo	-11545
▁coa	-11546
▁com	-11547
▁coo	-11548
▁cou	-11549
▁cov	-11550
▁dif	-11551
▁sto	-11552
▁Кли	-11553
▁жив	-11554
▁инв	-11555
acing	-11556
entif	-11557
stain	-11558
етств	-11559
осфор	-11560
рении	-11561
ствит	-11562
▁moun	-11563
▁nort	-11564
▁pred	-11565
▁pres	-11566
▁prom	-11567
▁prox	-11568
▁rais	-11569
▁rece	-11570
▁rele	-11571
▁resp	-11572
▁sche	-11573
▁seal	-11574
▁seas	-11575
▁seed	-11576
▁sele	-11577
▁sens	-11578
▁shap	-11579
▁soci	-11580
▁stab	-11581
▁stat	-11582
▁stom	-11583
▁stor	-11584
▁stre	-11585
▁stru	-11586
▁sulf	-11587
▁tabl	-11588
▁temp	-11589
▁thei	-11590
▁ther	-11591
▁thos	-11592
▁tour	-11593
▁tund	-11594
▁Алай	-11595
▁Аном	-11596
▁Вали	-11597
▁Вект	-11598
▁Кали	-11599
dul	-11600
pli	-11601
Оса	-11602
Пос	-11603
ичи	-11604
ичн	-11605
омб	-11606
оня	-11607
оск	-11608
осл	-11609
осф	-11610
сач	-11611
сса	-11612
уек	-11613
Қос	-11614
▁hu	-11615
▁ры	-11616
emat	-11617
fore	-11618
hine	-11619
stem	-11620
vern	-11621
алса	-11622
альн	-11623
асти	-11624
асто	-11625
ацию	-11626
енса	-11627
есса	-11628
истк	-11629
ично	-11630
ичны	-11631
калы	-11632
кнов	-11633
ктич	-11634
лерг	-11635
огич	-11636
очет	-11637
рлер	-11638
спос	-11639
стич	-11640
част	-11641
чист	-11642
ылуы	-11643
▁hab	-11644
▁her	-11645
▁Мод	-11646
▁вос	-11647
▁неб	-11648
▁нем	-11649
▁нео	-11650
▁неп	-11651
▁нес	-11652
▁оса	-11653
hment	-11654
ineer	-11655
inter	-11656
nment	-11657
yment	-11658
астан	-11659
астей	-11660
астот	-11661
ерист	-11662
еском	-11663
огает	-11664
огист	-11665
онные	-11666
осред	-11667
сация	-11668
сірет	-11669
цесса	-11670
ышает	-11671
▁Ключ	-11672
▁Пере	-11673
▁айны	-11674
▁алго	-11675
▁анса	-11676
▁артқ	-11677
▁байқ	-11678
▁бапт	-11679
▁баст	-11680
▁биос	-11681
▁биот	-11682
▁боле	-11683
▁болу	-11684
▁болы	-11685
▁бірд	-11686
▁бірі	-11687
▁вали	-11688
▁водя	-11689
▁выбо	-11690
▁долг	-11691
▁доми	-11692
▁дора	-11693
▁доро	-11694
▁дост	-11695
▁заме	-11696
▁имен	-11697
▁инва	-11698
▁кака	-11699
emp	-11700
eth	-11701
etl	-11702
ett	-11703
etw	-11704
hos	-11705
ios	-11706
met	-11707
owp	-11708
rch	-11709
yos	-11710
Это	-11711
лег	-11712
лең	-11713
ліг	-11714
рлі	-11715
сле	-11716
том	-11717
улі	-11718
фил	-11719
это	-11720
ікс	-11721
іле	-11722
▁әй	-11723
anch	-11724
char	-11725
emor	-11726
erco	-11727
gene	-11728
rove	-11729
urve	-11730
used	-11731
vege	-11732
vere	-11733
авим	-11734
ауіп	-11735
днов	-11736
ділі	-11737
емле	-11738
ерлі	-11739
инан	-11740
лері	-11741
лілі	-11742
роль	-11743
рофи	-11744
торо	-11745
чной	-11746
ысле	-11747
ьной	-11748
▁glo	-11749
▁mos	-11750
▁pos	-11751
▁айн	-11752
▁отк	-11753
▁отл	-11754
▁сме	-11755
▁уто	-11756
▁хол	-11757
orest	-11758
sical	-11759
далық	-11760
енное	-11761
ерной	-11762
ицией	-11763
ктной	-11764
лерін	-11765
манды	-11766
нкции	-11767
олной	-11768
онной	-11769
отной	-11770
споль	-11771
тегии	-11772
ғалат	-11773
▁rech	-11774
▁возв	-11775
▁кали	-11776
▁кате	-11777
▁кезд	-11778
▁кере	-11779
▁ключ	-11780
▁конт	-11781
▁кред	-11782
▁көрс	-11783
▁маус	-11784
▁меня	-11785
▁мини	-11786
▁моди	-11787
▁надё	-11788
▁нако	-11789
▁нақт	-11790
▁негі	-11791
▁неко	-11792
▁необ	-11793
▁неод	-11794
▁обес	-11795
▁обно	-11796
▁обоб	-11797
▁обос	-11798
▁обст	-11799
aus	-11800
Жив	-11801
зім	-11802
иім	-11803
нім	-11804
сім	-11805
уле	-11806
юща	-11807
імд	-11808
імс	-11809
імт	-11810
▁gl	-11811
▁go	-11812
▁ше	-11813
iate	-11814
ithm	-11815
iver	-11816
rate	-11817
umul	-11818
verf	-11819
verl	-11820
алом	-11821
ануы	-11822
анша	-11823
валы	-11824
дост	-11825
елющ	-11826
енім	-11827
етім	-11828
ияющ	-11829
кающ	-11830
лдер	-11831
мост	-11832
налы	-11833
ндер	-11834
оста	-11835
очно	-11836
пост	-11837
талы	-11838
шным	-11839
ющей	-11840
ющем	-11841
ірек	-11842
ғалы	-11843
қалы	-11844
▁ете	-11845
▁нал	-11846
▁сап	-11847
▁таз	-11848
▁шай	-11849
▁әле	-11850
erate	-11851
onate	-11852
orate	-11853
riate	-11854
river	-11855
veral	-11856
арыла	-11857
вации	-11858
дации	-11859
дерді	-11860
ендер	-11861
ералы	-11862
кации	-11863
оддер	-11864
особл	-11865
остер	-11866
рониц	-11867
сказы	-11868
стост	-11869
тации	-11870
▁cate	-11871
▁gain	-11872
▁малы	-11873
▁объё	-11874
▁огра	-11875
▁озна	-11876
▁опти	-11877
▁отда	-11878
▁откл	-11879
▁отли	-11880
▁отно	-11881
▁отра	-11882
▁пове	-11883
▁повы	-11884
▁пода	-11885
▁подг	-11886
▁подз	-11887
▁подх	-11888
▁подъ	-11889
▁пока	-11890
▁поль	-11891
▁пори	-11892
▁прес	-11893
▁приб	-11894
▁приз	-11895
▁прик	-11896
▁прим	-11897
▁прир	-11898
▁прич	-11899
ush	-11900
usl	-11901
usu	-11902
Бір	-11903
Важ	-11904
Осы	-11905
ажд	-11906
ажи	-11907
дин	-11908
инг	-11909
ину	-11910
озв	-11911
озд	-11912
озм	-11913
озя	-11914
поз	-11915
рсы	-11916
хоз	-11917
шин	-11918
щая	-11919
ірш	-11920
ірі	-11921
ірқ	-11922
Fres	-11923
Nort	-11924
gres	-11925
mist	-11926
tera	-11927
tero	-11928
terp	-11929
terv	-11930
ажне	-11931
баль	-11932
ейті	-11933
елуі	-11934
каль	-11935
ктір	-11936
маль	-11937
ожна	-11938
ожно	-11939
росы	-11940
сыва	-11941
ходе	-11942
▁alp	-11943
▁қаж	-11944
▁қоз	-11945
alter	-11946
atter	-11947
estab	-11948
heter	-11949
odies	-11950
param	-11951
reser	-11952
usion	-11953
ардың	-11954
девой	-11955
еледі	-11956
еседі	-11957
иналы	-11958
иналь	-11959
обаль	-11960
одгот	-11961
ожени	-11962
ожные	-11963
ональ	-11964
риаль	-11965
стыра	-11966
ірлер	-11967
қпара	-11968
▁reus	-11969
▁объя	-11970
▁подб	-11971
▁подв	-11972
▁поду	-11973
▁подч	-11974
▁прог	-11975
▁прое	-11976
▁проз	-11977
▁прои	-11978
▁пром	-11979
▁проп	-11980
▁прос	-11981
▁прот	-11982
▁проф	-11983
▁проц	-11984
▁прош	-11985
▁разл	-11986
▁раци	-11987
▁реал	-11988
▁резу	-11989
▁река	-11990
▁рель	-11991
▁салд	-11992
▁сезі	-11993
▁сетя	-11994
▁сист	-11995
▁сост	-11996
▁спос	-11997
▁спро	-11998
▁стал	-11999
ашн	-12000
иск	-12001
исх	-12002
пис	-12003
сив	-12004
уаң	-12005
▁Вы	-12006
▁нұ	-12007
Dist	-12008
mmer	-12009
oist	-12010
sist	-12011
дков	-12012
екта	-12013
екте	-12014
екти	-12015
жать	-12016
исит	-12017
исци	-12018
кері	-12019
кови	-12020
мали	-12021
масы	-12022
олня	-12023
онте	-12024
сков	-12025
уект	-12026
улар	-12027
ходы	-12028
ходя	-12029
шект	-12030
шков	-12031
ыход	-12032
▁Кри	-12033
▁апп	-12034
▁бут	-12035
▁выб	-12036
▁выд	-12037
▁вып	-12038
▁выш	-12039
▁изв	-12040
▁изм	-12041
▁име	-12042
▁кис	-12043
▁орт	-12044
▁чис	-12045
allen	-12046
enchm	-12047
istan	-12048
istur	-12049
poral	-12050
алыпт	-12051
анали	-12052
енуін	-12053
ерали	-12054
здығы	-12055
зінде	-12056
итект	-12057
одков	-12058
ордың	-12059
орлар	-12060
спект	-12061
ходим	-12062
ходст	-12063
язвим	-12064
ңінде	-12065
өйтіп	-12066
▁hist	-12067
▁prot	-12068
▁thes	-12069
▁thro	-12070
▁болж	-12071
▁болғ	-12072
▁выра	-12073
▁выро	-12074
▁диск	-12075
▁олар	-12076
▁стат	-12077
▁стел	-12078
▁стра	-12079
▁стре	-12080
▁стру	-12081
▁суар	-12082
▁суды	-12083
▁таби	-12084
▁талы	-12085
▁тере	-12086
▁толь	-12087
▁тығы	-12088
▁түзі	-12089
▁увел	-12090
▁ульт	-12091
▁упор	-12092
▁уско	-12093
▁уход	-12094
▁фосф	-12095
▁целе	-12096
▁чере	-12097
▁шару	-12098
▁шоғы	-12099
aci	-12100
apa	-12101
aps	-12102
cap	-12103
fid	-12104
hap	-12105
igr	-12106
irc	-12107
oci	-12108
блю	-12109
езд	-12110
езе	-12111
езі	-12112
зив	-12113
кла	-12114
тив	-12115
чив	-12116
ғаш	-12117
▁Fa	-12118
ansl	-12119
bund	-12120
colo	-12121
idly	-12122
iron	-12123
irri	-12124
redu	-12125
ауға	-12126
бейт	-12127
гает	-12128
езон	-12129
ерии	-12130
жает	-12131
ивно	-12132
йфті	-12133
ктив	-12134
льно	-12135
нгте	-12136
никл	-12137
пает	-12138
тера	-12139
цикл	-12140
чает	-12141
чать	-12142
шать	-12143
щает	-12144
▁aci	-12145
▁cap	-12146
▁siz	-12147
▁sup	-12148
▁Дат	-12149
▁вкл	-12150
▁кач	-12151
▁құб	-12152
▁құл	-12153
▁құп	-12154
ceans	-12155
ulari	-12156
алықт	-12157
ектив	-12158
ивной	-12159
иттар	-12160
ияқты	-12161
орғал	-12162
равни	-12163
стран	-12164
услов	-12165
халық	-12166
▁metr	-12167
▁priv	-12168
▁prob	-12169
▁proc	-12170
▁prod	-12171
▁proj	-12172
▁prop	-12173
▁экож	-12174
▁қалп	-12175
▁қалы	-12176
▁қолж	-12177
▁қорғ	-12178
▁қысқ	-12179
▁әдет	-12180
▁өнер	-12181
▁өткі	-12182
aining	-12183
ainten	-12184
alance	-12185
anning	-12186
cation	-12187
chical	-12188
chment	-12189
cience	-12190
ctical	-12191
ctions	-12192
dation	-12193
dwater	-12194
ection	-12195
enance	-12196
entify	-12197
enting	-12198
eously	-12199
dly	-12200
idd	-12201
idi	-12202
nds	-12203
sid	-12204
vid	-12205
Маш	-12206
аға	-12207
ойч	-12208
рға	-12209
сом	-12210
урс	-12211
утя	-12212
фом	-12213
ңаш	-12214
▁id	-12215
▁Ва	-12216
▁Да	-12217
▁Де	-12218
▁Ди	-12219
▁До	-12220
ally	-12221
dust	-12222
hape	-12223
idel	-12224
iden	-12225
itho	-12226
slop	-12227
Оның	-12228
ашыл	-12229
ашын	-12230
етом	-12231
игра	-12232
имом	-12233
ктур	-12234
мыст	-12235
ниже	-12236
новл	-12237
овой	-12238
овом	-12239
ойын	-12240
отой	-12241
робл	-12242
снов	-12243
терг	-12244
терп	-12245
терф	-12246
ымға	-12247
ының	-12248
інуі	-12249
әсіп	-12250
өтер	-12251
▁hid	-12252
▁sep	-12253
▁Вер	-12254
▁Дай	-12255
▁Дан	-12256
▁Дре	-12257
▁ком	-12258
▁таб	-12259
▁так	-12260
amics	-12261
lopes	-12262
mance	-12263
аласы	-12264
ектур	-12265
ерная	-12266
каның	-12267
новре	-12268
нының	-12269
обнов	-12270
прети	-12271
ынның	-12272
ясним	-12273
ғының	-12274
▁Дост	-12275
▁возм	-12276
▁мене	-12277
▁мүмк	-12278
▁объе	-12279
▁обыч	-12280
ffects	-12281
gation	-12282
gement	-12283
hwater	-12284
iation	-12285
igning	-12286
ilable	-12287
istrib	-12288
isture	-12289
itical	-12290
itions	-12291
itudin	-12292
jectiv	-12293
lacial	-12294
lation	-12295
lement	-12296
losely	-12297
luence	-12298
mation	-12299
sol	-12300
Эти	-12301
бил	-12302
биі	-12303
биғ	-12304
доч	-12305
йті	-12306
луж	-12307
мти	-12308
ооч	-12309
сня	-12310
тиж	-12311
уби	-12312
яти	-12313
▁Аг	-12314
▁Аз	-12315
▁Аң	-12316
aces	-12317
ound	-12318
qual	-12319
quan	-12320
undw	-12321
бина	-12322
бине	-12323
бини	-12324
бира	-12325
елті	-12326
ивті	-12327
новк	-12328
нфер	-12329
очка	-12330
очко	-12331
очни	-12332
сточ	-12333
тиру	-12334
шлен	-12335
ытых	-12336
▁Mod	-12337
▁Mon	-12338
▁aqu	-12339
▁mag	-12340
▁org	-12341
▁som	-12342
▁ала	-12343
▁алл	-12344
▁зна	-12345
▁қыш	-12346
duces	-12347
ectur	-12348
gical	-12349
icult	-12350
quent	-12351
round	-12352
taino	-12353
tains	-12354
undan	-12355
under	-12356
ажива	-12357
алана	-12358
далан	-12359
ейрон	-12360
ерный	-12361
еский	-12362
есмот	-12363
ичный	-12364
новых	-12365
одный	-12366
отный	-12367
очный	-12368
стікт	-12369
тиров	-12370
ынасы	-12371
ындай	-12372
ютную	-12373
ғалан	-12374
▁incl	-12375
▁mach	-12376
▁requ	-12377
▁sour	-12378
▁sout	-12379
▁алас	-12380
▁атай	-12381
▁көле	-12382
▁покр	-12383
ertain	-12384
ologic	-12385
omains	-12386
onment	-12387
onomic	-12388
onserv	-12389
orical	-12390
osphor	-12391
perate	-12392
pholog	-12393
plicit	-12394
quires	-12395
ractic	-12396
raints	-12397
reased	-12398
rement	-12399
Imp	-12400
gul	-12401
mph	-12402
mpl	-12403
mpt	-12404
teg	-12405
гла	-12406
ифи	-12407
лаг	-12408
нфи	-12409
фид	-12410
ффи	-12411
ғуы	-12412
▁ло	-12413
▁лю	-12414
mpos	-12415
mput	-12416
udin	-12417
айла	-12418
алуы	-12419
вном	-12420
дном	-12421
дств	-12422
ерте	-12423
еріс	-12424
етте	-12425
кисл	-12426
ласс	-12427
нств	-12428
ныла	-12429
отам	-12430
рауы	-12431
рафи	-12432
рила	-12433
рлық	-12434
стве	-12435
ству	-12436
стыр	-12437
ынуы	-12438
ющую	-12439
ялық	-12440
▁als	-12441
▁alw	-12442
▁nit	-12443
▁вла	-12444
▁луч	-12445
▁мек	-12446
▁орг	-12447
▁орн	-12448
▁тәр	-12449
gates	-12450
iffer	-12451
mping	-12452
mpres	-12453
osyst	-12454
roper	-12455
арлық	-12456
ассов	-12457
ассом	-12458
аулық	-12459
дылық	-12460
ейств	-12461
итном	-12462
коном	-12463
ламен	-12464
обств	-12465
тацию	-12466
уының	-12467
ынған	-12468
▁syst	-12469
▁басс	-12470
▁орны	-12471
▁сақт	-12472
ribute	-12473
rocess	-12474
tation	-12475
termin	-12476
tribut	-12477
uation	-12478
uction	-12479
umping	-12480
unning	-12481
urrent	-12482
ushion	-12483
ustain	-12484
utions	-12485
vation	-12486
vement	-12487
verall	-12488
vergra	-12489
ysical	-12490
zation	-12491
ажност	-12492
айдала	-12493
алалық	-12494
алансы	-12495
алануы	-12496
аланып	-12497
аларын	-12498
алыпты	-12499
cco	-12500
cul	-12501
eco	-12502
mul	-12503
oul	-12504
бль	-12505
иль	-12506
лье	-12507
пты	-12508
шік	-12509
▁Тұ	-12510
coun	-12511
dens	-12512
icul	-12513
imul	-12514
ivel	-12515
raul	-12516
sari	-12517
slid	-12518
биль	-12519
дачи	-12520
ешуш	-12521
еңде	-12522
ифер	-12523
ойчи	-12524
онты	-12525
опол	-12526
опот	-12527
сала	-12528
сурс	-12529
сфер	-12530
тард	-12531
тыру	-12532
феру	-12533
чива	-12534
штар	-12535
ығын	-12536
▁obj	-12537
▁vap	-12538
▁var	-12539
▁Тау	-12540
▁Тем	-12541
▁тұт	-12542
▁төз	-12543
▁уль	-12544
bance	-12545
cores	-12546
hetic	-12547
nance	-12548
ormal	-12549
orted	-12550
orten	-12551
rainf	-12552
train	-12553
valid	-12554
ещест	-12555
ислов	-12556
иімді	-12557
менчи	-12558
опост	-12559
узным	-12560
ферен	-12561
феров	-12562
ықтар	-12563
імдік	-12564
▁deco	-12565
▁vent	-12566
▁суль	-12567
ariate	-12568
icance	-12569
ortion	-12570
rained	-12571
strain	-12572
urface	-12573
алысты	-12574
алықты	-12575
альном	-12576
альным	-12577
аниров	-12578
аралар	-12579
арасты	-12580
арение	-12581
арлары	-12582
асност	-12583
ассива	-12584
астану	-12585
астбищ	-12586
асының	-12587
асырын	-12588
ативті	-12589
атисти	-12590
атичес	-12591
атност	-12592
атында	-12593
ақпара	-12594
бейеді	-12595
бищные	-12596
бности	-12597
бстрак	-12598
версия	-12599
еуі	-12600
мағ	-12601
сии	-12602
тма	-12603
ума	-12604
ёма	-12605
▁ne	-12606
esig	-12607
fers	-12608
fuse	-12609
hers	-12610
ivit	-12611
kage	-12612
lows	-12613
pers	-12614
данб	-12615
емуі	-12616
етуі	-12617
здан	-12618
змет	-12619
зуем	-12620
зуль	-12621
зуют	-12622
ющая	-12623
ңдан	-12624
▁Hem	-12625
▁Imp	-12626
▁hig	-12627
▁nat	-12628
▁nut	-12629
▁ris	-12630
▁еті	-12631
▁сип	-12632
▁спе	-12633
▁түй	-12634
▁түс	-12635
ciers	-12636
eters	-12637
ifers	-12638
ignif	-12639
lanet	-12640
riers	-12641
атыны	-12642
данат	-12643
ктерд	-12644
ктери	-12645
метті	-12646
ногок	-12647
ользу	-12648
оляют	-12649
сурсы	-12650
тного	-12651
увств	-12652
ғанды	-12653
қулар	-12654
▁rand	-12655
▁slow	-12656
▁возд	-12657
▁жала	-12658
enters	-12659
imatic	-12660
вивают	-12661
вимост	-12662
вление	-12663
вности	-12664
вность	-12665
водить	-12666
водных	-12667
гейден	-12668
гналом	-12669
гіздел	-12670
дануын	-12671
дардың	-12672
даются	-12673
держив	-12674
деулік	-12675
дратич	-12676
дрение	-12677
діріст	-12678
ебания	-12679
езінде	-12680
ектной	-12681
ектуры	-12682
еление	-12683
еления	-12684
еловек	-12685
ельдер	-12686
ельное	-12687
ельной	-12688
ельном	-12689
ельную	-12690
ельные	-12691
ельных	-12692
емінде	-12693
енение	-12694
енения	-12695
ениров	-12696
енност	-12697
енттік	-12698
енімді	-12699
ame	-12700
dow	-12701
hib	-12702
ote	-12703
owm	-12704
Сме	-12705
евы	-12706
ням	-12707
нят	-12708
сме	-12709
ікк	-12710
үйр	-12711
▁Hy	-12712
▁Ph	-12713
lies	-12714
mata	-12715
perp	-12716
plen	-12717
yper	-12718
аруш	-12719
ашня	-12720
егра	-12721
жимі	-12722
идро	-12723
ипер	-12724
ирет	-12725
касы	-12726
ктік	-12727
няли	-12728
огии	-12729
рамы	-12730
раня	-12731
рета	-12732
ріст	-12733
фрақ	-12734
чная	-12735
шылы	-12736
ірақ	-12737
қасы	-12738
үйел	-12739
▁Nat	-12740
▁арх	-12741
▁бақ	-12742
▁опи	-12743
▁сок	-12744
emper	-12745
eries	-12746
iable	-12747
odify	-12748
ories	-12749
perat	-12750
perim	-12751
алғын	-12752
ашылы	-12753
дений	-12754
дерге	-12755
ентов	-12756
инное	-12757
инфор	-12758
лгори	-12759
лений	-12760
льное	-12761
отная	-12762
очное	-12763
перат	-12764
рақсы	-12765
рақты	-12766
чений	-12767
шений	-12768
яющей	-12769
▁fast	-12770
▁айма	-12771
▁ауыс	-12772
▁дәре	-12773
▁етет	-12774
▁сіңу	-12775
▁эксп	-12776
арының	-12777
ералық	-12778
ерения	-12779
ерност	-12780
ерпани	-12781
ерінде	-12782
ескими	-12783
ествен	-12784
естест	-12785
естооб	-12786
есттер	-12787
етімді	-12788
етінде	-12789
ечение	-12790
ечению	-12791
ечески	-12792
ешенді	-12793
еңінде	-12794
жается	-12795
женной	-12796
женном	-12797
жности	-12798
жность	-12799
ama	-12800
amf	-12801
ams	-12802
ffe	-12803
uff	-12804
авл	-12805
бут	-12806
біл	-12807
еке	-12808
кеа	-12809
нке	-12810
нут	-12811
шеу	-12812
▁ну	-12813
▁нә	-12814
amic	-12815
aram	-12816
call	-12817
elds	-12818
ends	-12819
ffer	-12820
ffic	-12821
tece	-12822
аған	-12823
грам	-12824
етке	-12825
забо	-12826
иеся	-12827
луін	-12828
отбо	-12829
отке	-12830
отку	-12831
оцен	-12832
оғал	-12833
рдел	-12834
ікке	-12835
ғалт	-12836
▁whi	-12837
▁нер	-12838
▁нуж	-12839
▁хоз	-12840
▁хра	-12841
▁ған	-12842
colog	-12843
draul	-12844
estim	-12845
ffers	-12846
getat	-12847
rease	-12848
rogen	-12849
rolog	-12850
абили	-12851
гориз	-12852
гория	-12853
графи	-12854
егори	-12855
емдел	-12856
еріле	-12857
кеани	-12858
лшект	-12859
рогра	-12860
стері	-12861
тегра	-12862
імдел	-12863
ғалды	-12864
▁perf	-12865
▁peri	-12866
▁prep	-12867
▁игра	-12868
▁набо	-12869
▁разб	-12870
▁разд	-12871
▁разм	-12872
thetic	-12873
закция	-12874
зиолог	-12875
знаков	-12876
зности	-12877
зность	-12878
зовать	-12879
зуется	-12880
ивающе	-12881
ивного	-12882
ивными	-12883
иналып	-12884
иналық	-12885
инение	-12886
ирация	-12887
исание	-12888
истема	-12889
истеме	-12890
истему	-12891
истемы	-12892
истика	-12893
ичение	-12894
ичения	-12895
ичного	-12896
кается	-12897
казани	-12898
кивают	-12899
tex	-12900
дши	-12901
епт	-12902
ксі	-12903
мыр	-12904
нга	-12905
тмы	-12906
шиб	-12907
шил	-12908
әсі	-12909
▁AU	-12910
▁Об	-12911
▁Оқ	-12912
ante	-12913
ause	-12914
епен	-12915
епте	-12916
есеп	-12917
здық	-12918
иікт	-12919
лған	-12920
меди	-12921
мкін	-12922
овку	-12923
прав	-12924
равн	-12925
хран	-12926
ызды	-12927
іксі	-12928
▁Ind	-12929
▁bec	-12930
▁bey	-12931
▁enc	-12932
▁env	-12933
▁lea	-12934
▁shr	-12935
▁urb	-12936
▁арт	-12937
▁арқ	-12938
▁клю	-12939
▁мощ	-12940
▁үне	-12941
tions	-12942
анған	-12943
ающая	-12944
биікт	-12945
елдің	-12946
еолог	-12947
епени	-12948
ерісі	-12949
ечива	-12950
здықт	-12951
иолог	-12952
ичива	-12953
мағын	-12954
отран	-12955
ранза	-12956
раниц	-12957
рансп	-12958
рделі	-12959
сурса	-12960
ценка	-12961
шными	-12962
ғынды	-12963
▁chal	-12964
▁chos	-12965
▁dete	-12966
▁жікт	-12967
▁прав	-12968
▁самы	-12969
▁түсі	-12970
terval	-12971
кономи	-12972
ктерде	-12973
ктерді	-12974
ктност	-12975
кілігі	-12976
кіштер	-12977
лардан	-12978
латыны	-12979
лемент	-12980
лердің	-12981
лионов	-12982
лияния	-12983
лобаль	-12984
ложная	-12985
лықтар	-12986
льефом	-12987
льефті	-12988
ляемых	-12989
ляется	-12990
лілікт	-12991
лінеді	-12992
матика	-12993
медици	-12994
мендер	-12995
менени	-12996
менные	-12997
метров	-12998
миниру	-12999
вий	-13000
жая	-13001
нге	-13002
ссу	-13003
чая	-13004
ять	-13005
ілу	-13006
pply	-13007
rong	-13008
sive	-13009
tive	-13010
ware	-13011
аруж	-13012
блем	-13013
зным	-13014
мерз	-13015
нару	-13016
онят	-13017
орят	-13018
ребл	-13019
ребу	-13020
росс	-13021
сным	-13022
ссуж	-13023
шком	-13024
ытий	-13025
ыхлы	-13026
іріп	-13027
үшей	-13028
үшті	-13029
үшін	-13030
▁Aqu	-13031
▁app	-13032
▁lak	-13033
▁бөл	-13034
▁жоғ	-13035
▁коэ	-13036
▁упл	-13037
odels	-13038
pport	-13039
аралу	-13040
аруда	-13041
ачест	-13042
езным	-13043
енным	-13044
зания	-13045
ивным	-13046
казат	-13047
ковид	-13048
ледов	-13049
мость	-13050
немді	-13051
одбор	-13052
онную	-13053
сурст	-13054
торий	-13055
ырмаш	-13056
ытуды	-13057
ілігі	-13058
қында	-13059
▁enab	-13060
▁reso	-13061
▁жосп	-13062
▁нару	-13063
▁упро	-13064
etting	-13065
ifting	-13066
itting	-13067
айында	-13068
альную	-13069
житель	-13070
мируют	-13071
нитори	-13072
нности	-13073
нность	-13074
новать	-13075
носные	-13076
носным	-13077
ностей	-13078
ностно	-13079
ностны	-13080
ныстар	-13081
нықтай	-13082
нықтал	-13083
нықтау	-13084
няется	-13085
обност	-13086
ования	-13087
оверие	-13088
овпала	-13089
оговый	-13090
одност	-13091
ожение	-13092
ожений	-13093
ожност	-13094
озғалы	-13095
ойчиво	-13096
олению	-13097
ологич	-13098
олықты	-13099
ead	-13100
pho	-13101
люч	-13102
юче	-13103
үнг	-13104
▁Re	-13105
▁Со	-13106
▁Ст	-13107
Eval	-13108
adap	-13109
aics	-13110
ansm	-13111
ansp	-13112
aste	-13113
ativ	-13114
clud	-13115
load	-13116
osph	-13117
phic	-13118
ruct	-13119
stru	-13120
азов	-13121
ающи	-13122
двиг	-13123
дисп	-13124
жающ	-13125
зкой	-13126
мати	-13127
нгей	-13128
ндық	-13129
норм	-13130
окой	-13131
птег	-13132
ради	-13133
рмау	-13134
рмаш	-13135
ртық	-13136
ступ	-13137
ттық	-13138
упны	-13139
урах	-13140
чающ	-13141
щающ	-13142
ючая	-13143
▁add	-13144
▁Нес	-13145
▁Орм	-13146
▁зим	-13147
reamf	-13148
вифер	-13149
дении	-13150
ендеу	-13151
ерсия	-13152
зоват	-13153
ормат	-13154
очкой	-13155
разов	-13156
рмали	-13157
ымдық	-13158
ёными	-13159
▁aval	-13160
▁eval	-13161
▁shru	-13162
▁дооб	-13163
▁перс	-13164
ailure	-13165
istics	-13166
алыпта	-13167
бейтін	-13168
деулер	-13169
ебаний	-13170
ектура	-13171
енными	-13172
зациял	-13173
нкцион	-13174
одными	-13175
онение	-13176
онного	-13177
онымен	-13178
орлары	-13179
осфера	-13180
отност	-13181
отребл	-13182
очными	-13183
пление	-13184
пность	-13185
полной	-13186
предел	-13187
пример	-13188
птесін	-13189
пусков	-13190
равнит	-13191
редела	-13192
ределя	-13193
ределё	-13194
ривают	-13195
ровани	-13196
ровнем	-13197
роение	-13198
роения	-13199
Hum	-13200
acy	-13201
biv	-13202
ivo	-13203
lum	-13204
oms	-13205
tiv	-13206
Инф	-13207
кры	-13208
ьев	-13209
іңу	-13210
▁Wh	-13211
▁ек	-13212
ages	-13213
anot	-13214
apot	-13215
ctiv	-13216
eriv	-13217
onom	-13218
алап	-13219
длен	-13220
ечек	-13221
збыт	-13222
ксте	-13223
полн	-13224
рыва	-13225
стры	-13226
цесі	-13227
ынай	-13228
▁bot	-13229
▁hum	-13230
acity	-13231
ccess	-13232
creas	-13233
duced	-13234
omain	-13235
ransm	-13236
авлен	-13237
войст	-13238
вопол	-13239
дацию	-13240
ервис	-13241
льтат	-13242
метры	-13243
ногда	-13244
овлен	-13245
чивое	-13246
▁clas	-13247
▁sett	-13248
▁Топы	-13249
▁бірқ	-13250
▁жина	-13251
▁серв	-13252
▁сжим	-13253
▁шына	-13254
eature	-13255
orests	-13256
ателер	-13257
аңызды	-13258
войств	-13259
держка	-13260
держки	-13261
казала	-13262
ларына	-13263
ленный	-13264
равлен	-13265
росами	-13266
росфер	-13267
рсеткі	-13268
руктур	-13269
рінеді	-13270
садков	-13271
систем	-13272
ситель	-13273
словий	-13274
сности	-13275
сность	-13276
сталып	-13277
старын	-13278
стений	-13279
стения	-13280
стинга	-13281
сімдік	-13282
тардан	-13283
тардың	-13284
тарлық	-13285
тейтін	-13286
тность	-13287
тырады	-13288
ункция	-13289
уралық	-13290
урного	-13291
учение	-13292
учении	-13293
учению	-13294
учения	-13295
ферлер	-13296
ферное	-13297
хности	-13298
хность	-13299
Gla	-13300
Sol	-13301
bla	-13302
ақп	-13303
выш	-13304
душ	-13305
жду	-13306
зил	-13307
мбл	-13308
убл	-13309
ышқ	-13310
язи	-13311
қыш	-13312
Ecos	-13313
eigh	-13314
ervo	-13315
nect	-13316
ogra	-13317
olum	-13318
olut	-13319
pect	-13320
prov	-13321
serv	-13322
бсол	-13323
ерие	-13324
ефом	-13325
риск	-13326
рози	-13327
скен	-13328
тасқ	-13329
ышен	-13330
қалм	-13331
▁pla	-13332
▁unt	-13333
▁vol	-13334
▁мақ	-13335
▁уақ	-13336
apted	-13337
ecies	-13338
ectiv	-13339
ighly	-13340
itect	-13341
ollow	-13342
onger	-13343
recip	-13344
vapor	-13345
xidiz	-13346
аласқ	-13347
асқын	-13348
ающие	-13349
еріск	-13350
зиров	-13351
сколь	-13352
ствие	-13353
▁tool	-13354
apture	-13355
dition	-13356
essent	-13357
reserv	-13358
асқару	-13359
дастық	-13360
зуются	-13361
иіктік	-13362
ходами	-13363
ходных	-13364
худшая	-13365
ционал	-13366
циялық	-13367
чества	-13368
чивост	-13369
чности	-13370
щатель	-13371
ылуына	-13372
ылысты	-13373
ысында	-13374
ьность	-13375
ясняет	-13376
ятност	-13377
імделу	-13378
імдікт	-13379
імділі	-13380
іретін	-13381
ғалдың	-13382
ғызады	-13383
ғынның	-13384
қалары	-13385
қтарда	-13386
қтарды	-13387
қтарын	-13388
қындау	-13389
үйелер	-13390
ұрылым	-13391
Өсімді	-13392
өлшері	-13393
▁Datas	-13394
▁Fresh	-13395
▁Inten	-13396
▁Stand	-13397
▁accum	-13398
▁adver	-13399
оян	-13400
Смещ	-13401
водя	-13402
здік	-13403
лдік	-13404
меща	-13405
ндік	-13406
ницу	-13407
ницы	-13408
нтро	-13409
песе	-13410
смещ	-13411
троп	-13412
хемы	-13413
ігін	-13414
қсас	-13415
ңдік	-13416
▁acc	-13417
▁мұх	-13418
▁тың	-13419
▁тәж	-13420
▁шум	-13421
ivers	-13422
ацияс	-13423
баний	-13424
дамды	-13425
диент	-13426
емент	-13427
ендік	-13428
енсив	-13429
ентат	-13430
прета	-13431
рейфа	-13432
руемы	-13433
садка	-13434
тегін	-13435
трофи	-13436
устар	-13437
ущест	-13438
циент	-13439
▁runo	-13440
▁Осад	-13441
▁жауа	-13442
▁туды	-13443
▁тәсі	-13444
advers	-13445
arates	-13446
icates	-13447
reates	-13448
rivers	-13449
Валида	-13450
акторо	-13451
алансе	-13452
диация	-13453
етация	-13454
ключая	-13455
ложные	-13456
ляриза	-13457
ляются	-13458
общест	-13459
рафика	-13460
рейфті	-13461
словия	-13462
старни	-13463
▁algor	-13464
▁bedro	-13465
▁chann	-13466
▁class	-13467
▁compa	-13468
▁compl	-13469
▁conce	-13470
▁conse	-13471
▁conta	-13472
▁conve	-13473
▁datas	-13474
▁degra	-13475
▁deplo	-13476
▁depos	-13477
▁deter	-13478
▁disch	-13479
▁disci	-13480
▁encod	-13481
▁envir	-13482
▁evalu	-13483
▁exces	-13484
▁exist	-13485
▁explo	-13486
▁gradi	-13487
▁incon	-13488
▁incre	-13489
▁infil	-13490
▁infra	-13491
▁inten	-13492
▁intro	-13493
▁lands	-13494
▁measu	-13495
▁metal	-13496
▁minim	-13497
▁overf	-13498
▁overl	-13499
ays	-13500
ups	-13501
ysi	-13502
вед	-13503
вып	-13504
вяз	-13505
ебі	-13506
ешу	-13507
сум	-13508
суш	-13509
шіп	-13510
язн	-13511
үсу	-13512
▁Er	-13513
▁Ex	-13514
▁Жо	-13515
▁үс	-13516
alls	-13517
alys	-13518
erns	-13519
face	-13520
mmar	-13521
mmon	-13522
sify	-13523
арту	-13524
біне	-13525
ееся	-13526
ешім	-13527
овые	-13528
спеш	-13529
іпсі	-13530
іңіп	-13531
қмер	-13532
▁Ear	-13533
▁Жан	-13534
▁Жив	-13535
▁уяз	-13536
бивых	-13537
ботке	-13538
лияющ	-13539
▁Eval	-13540
▁Жікт	-13541
▁аллю	-13542
▁жата	-13543
▁субъ	-13544
▁түсу	-13545
ulture	-13546
венных	-13547
едении	-13548
едения	-13549
мосфер	-13550
осферу	-13551
ренных	-13552
сущест	-13553
цирует	-13554
шылығы	-13555
▁diffe	-13556
▁overw	-13557
▁patch	-13558
▁perco	-13559
▁preci	-13560
▁prote	-13561
▁refle	-13562
▁regim	-13563
▁reser	-13564
▁resid	-13565
▁simil	-13566
▁storm	-13567
▁stres	-13568
▁targe	-13569
▁terra	-13570
▁there	-13571
▁treat	-13572
▁withd	-13573
▁witho	-13574
▁Агрег	-13575
▁Байес	-13576
▁Балан	-13577
▁Приме	-13578
▁айным	-13579
▁анали	-13580
▁антро	-13581
▁апост	-13582
▁байла	-13583
▁бағал	-13584
▁безоп	-13585
▁белгі	-13586
▁белде	-13587
▁бетін	-13588
▁биікт	-13589
▁бойын	-13590
▁болды	-13591
▁бірне	-13592
▁важне	-13593
▁водны	-13594
▁водос	-13595
▁водот	-13596
▁водох	-13597
▁водоё	-13598
▁возра	-13599
▁Su	-13600
lant	-13601
nowm	-13602
pens	-13603
tial	-13604
гнал	-13605
змер	-13606
рдай	-13607
ығыс	-13608
ғдай	-13609
ғысу	-13610
ғысы	-13611
▁agg	-13612
▁atm	-13613
▁err	-13614
▁spa	-13615
▁spr	-13616
▁еңі	-13617
▁мик	-13618
▁тип	-13619
▁тиі	-13620
▁ықт	-13621
assif	-13622
centr	-13623
eural	-13624
finit	-13625
iodic	-13626
iolog	-13627
lants	-13628
ously	-13629
абиғи	-13630
андай	-13631
андар	-13632
ануды	-13633
ганич	-13634
даныл	-13635
ейден	-13636
клоны	-13637
нкция	-13638
ондай	-13639
оныст	-13640
ответ	-13641
очена	-13642
работ	-13643
рауын	-13644
ылдам	-13645
ылғыс	-13646
ымдар	-13647
үшейт	-13648
▁drif	-13649
▁driv	-13650
▁eros	-13651
▁spat	-13652
▁дифф	-13653
▁кеңі	-13654
▁теңі	-13655
▁тиес	-13656
▁қарж	-13657
▁қарқ	-13658
achine	-13659
enolog	-13660
geolog	-13661
includ	-13662
ortens	-13663
quence	-13664
ботать	-13665
дерден	-13666
значим	-13667
наласқ	-13668
оятель	-13669
рактик	-13670
риатив	-13671
▁Evalu	-13672
▁вслед	-13673
▁выдел	-13674
▁выпол	-13675
▁высок	-13676
▁гидро	-13677
▁город	-13678
▁грани	-13679
▁данны	-13680
▁дерев	-13681
▁дисци	-13682
▁жағал	-13683
▁жергі	-13684
▁жоғал	-13685
▁задер	-13686
▁замет	-13687
▁запас	-13688
▁заңды	-13689
▁земле	-13690
▁извле	-13691
▁инжен	-13692
▁итера	-13693
▁конта	-13694
▁конте	-13695
▁корре	-13696
▁күшей	-13697
▁көтер	-13698
▁линей	-13699
pox	-13700
ypo	-13701
пад	-13702
чву	-13703
щён	-13704
ұқа	-13705
▁ke	-13706
asks	-13707
bsid	-13708
ewal	-13709
held	-13710
orld	-13711
poin	-13712
pout	-13713
roup	-13714
ryos	-13715
uple	-13716
zard	-13717
атпа	-13718
лшем	-13719
ртүр	-13720
стое	-13721
туды	-13722
числ	-13723
ясни	-13724
ясня	-13725
қаға	-13726
ұрыл	-13727
▁obs	-13728
▁Аңғ	-13729
▁дұр	-13730
▁маң	-13731
▁ұза	-13732
▁әлс	-13733
etwor	-13734
аңдан	-13735
легко	-13736
лшері	-13737
лыққа	-13738
раққа	-13739
селел	-13740
▁beca	-13741
▁deca	-13742
▁decl	-13743
▁miss	-13744
liable	-13745
алануш	-13746
ельско	-13747
ическо	-13748
лгорит	-13749
сперси	-13750
ствует	-13751
чается	-13752
шіктік	-13753
щается	-13754
▁aggre	-13755
▁snowm	-13756
▁snowp	-13757
▁Генер	-13758
▁бойла	-13759
▁входа	-13760
▁масса	-13761
▁матем	-13762
▁матер	-13763
▁момен	-13764
▁навет	-13765
▁напро	-13766
▁недел	-13767
▁обесп	-13768
▁образ	-13769
▁обрат	-13770
▁обуча	-13771
▁объед	-13772
▁окисл	-13773
▁ортас	-13774
▁отдел	-13775
▁оцено	-13776
▁ошибо	-13777
▁перен	-13778
▁перер	-13779
▁перес	-13780
▁повер	-13781
▁подбо	-13782
▁подго	-13783
▁полно	-13784
▁посел	-13785
▁поста	-13786
▁посто	-13787
▁потер	-13788
▁предг	-13789
▁предп	-13790
▁предс	-13791
▁преим	-13792
▁преоб	-13793
▁прикл	-13794
▁приро	-13795
▁присп	-13796
▁причи	-13797
▁причё	-13798
▁прово	-13799
Құр	-13800
▁Cy	-13801
▁De	-13802
▁рө	-13803
ible	-13804
prop	-13805
vide	-13806
wals	-13807
ways	-13808
акто	-13809
дких	-13810
жесі	-13811
йтіп	-13812
лесі	-13813
луча	-13814
лучш	-13815
моро	-13816
мтам	-13817
ороз	-13818
әтиж	-13819
▁Dat	-13820
▁Sol	-13821
▁una	-13822
▁une	-13823
▁uns	-13824
▁мил	-13825
▁учё	-13826
esign	-13827
ients	-13828
impro	-13829
imult	-13830
quire	-13831
rable	-13832
renew	-13833
ultan	-13834
urren	-13835
актор	-13836
иском	-13837
капли	-13838
нород	-13839
носит	-13840
олнит	-13841
родол	-13842
тегия	-13843
форма	-13844
ытыва	-13845
іксіз	-13846
қалса	-13847
қылды	-13848
әтиже	-13849
▁Dist	-13850
▁scar	-13851
▁tren	-13852
▁Жану	-13853
▁Инфи	-13854
▁буст	-13855
▁быва	-13856
▁жану	-13857
▁круп	-13858
▁мақс	-13859
▁прод	-13860
▁случ	-13861
▁шама	-13862
▁өнді	-13863
ignals	-13864
rients	-13865
діксіз	-13866
казыва	-13867
сіздік	-13868
тамасы	-13869
ынының	-13870
қалады	-13871
▁Indic	-13872
▁align	-13873
▁Инфер	-13874
▁архит	-13875
▁бақыл	-13876
▁дегра	-13877
▁жамыл	-13878
▁мұхит	-13879
▁назем	-13880
▁проис	-13881
▁промы	-13882
▁прони	-13883
▁проса	-13884
▁проти	-13885
▁профи	-13886
▁разли	-13887
▁разре	-13888
▁регре	-13889
▁редки	-13890
▁связа	-13891
▁сирет	-13892
▁смеща	-13893
▁снижа	-13894
▁средн	-13895
▁стоим	-13896
▁стоко	-13897
▁тазал	-13898
▁тести	-13899
bear	-13900
ustn	-13901
рлан	-13902
эффи	-13903
Glaci	-13904
bland	-13905
cline	-13906
imits	-13907
nitud	-13908
reams	-13909
ионах	-13910
йонах	-13911
кцион	-13912
перпл	-13913
рукту	-13914
ырады	-13915
қарта	-13916
▁arri	-13917
▁outb	-13918
▁outf	-13919
▁repe	-13920
▁азай	-13921
▁азая	-13922
▁дисб	-13923
▁желі	-13924
▁скло	-13925
atitud	-13926
etland	-13927
imited	-13928
lacier	-13929
odific	-13930
ripari	-13931
stream	-13932
Вероят	-13933
ваться	-13934
ганики	-13935
диации	-13936
доступ	-13937
емделу	-13938
енетін	-13939
еруіне	-13940
имиров	-13941
иорные	-13942
клонах	-13943
корост	-13944
ктичес	-13945
ницаем	-13946
пасына	-13947
раница	-13948
рессия	-13949
роница	-13950
стайды	-13951
структ	-13952
торост	-13953
ікелей	-13954
▁Aquif	-13955
▁aquif	-13956
▁expos	-13957
▁келті	-13958
▁терри	-13959
▁тиесі	-13960
▁тотығ	-13961
▁требу	-13962
▁түйір	-13963
▁тәуек	-13964
▁упоря	-13965
▁успеш	-13966
▁учёто	-13967
▁форми	-13968
▁целев	-13969
▁часты	-13970
▁шешуш	-13971
▁шешім	-13972
▁эконо	-13973
▁қабат	-13974
▁қабыл	-13975
▁қалды	-13976
▁қамти	-13977
▁қауым	-13978
▁қауіп	-13979
▁қолда	-13980
▁құбыл	-13981
▁құрыл	-13982
▁құрға	-13983
▁әрдай	-13984
▁әсері	-13985
▁өлшен	-13986
ailable	-13987
aintain	-13988
aration	-13989
ariable	-13990
ariance	-13991
aseline	-13992
atitude	-13993
certain	-13994
cession	-13995
chments	-13996
drology	-13997
duction	-13998
earning	-13999
luv	-14000
oug	-14001
oxy	-14002
tho	-14003
wth	-14004
ynt	-14005
ебе	-14006
кіз	-14007
люд	-14008
come	-14009
filt	-14010
iffe	-14011
lled	-14012
luen	-14013
oice	-14014
ptiv	-14015
radi	-14016
rink	-14017
roug	-14018
scap	-14019
бебі	-14020
блюд	-14021
ехно	-14022
мооч	-14023
нять	-14024
табу	-14025
юдей	-14026
явля	-14027
інбе	-14028
▁dyn	-14029
▁flu	-14030
▁oxy	-14031
▁syn	-14032
▁Дег	-14033
▁вег	-14034
▁сег	-14035
ablis	-14036
asize	-14037
astor	-14038
ctice	-14039
idely	-14040
isher	-14041
itize	-14042
other	-14043
ption	-14044
quare	-14045
thers	-14046
атора	-14047
болот	-14048
етрон	-14049
еуект	-14050
ехани	-14051
ксных	-14052
окаль	-14053
стинг	-14054
▁allu	-14055
▁assu	-14056
▁past	-14057
establ	-14058
iffuse	-14059
inking	-14060
orther	-14061
ugment	-14062
дрении	-14063
рименя	-14064
рощает	-14065
уществ	-14066
ымдаса	-14067
▁coast	-14068
▁enabl	-14069
▁пород	-14070
diation	-14071
easonal	-14072
ediment	-14073
eration	-14074
gnitude	-14075
grading	-14076
gregate	-14077
helming	-14078
henolog	-14079
hysical	-14080
ication	-14081
ignific	-14082
ilation	-14083
imation	-14084
iration	-14085
isphere	-14086
itation	-14087
itoring	-14088
iveness	-14089
ization	-14090
laciers	-14091
lanning	-14092
leasing	-14093
lements	-14094
lopment	-14095
odeling	-14096
onments	-14097
ormance	-14098
osystem	-14099
зіл	-14100
уга	-14101
rors	-14102
Агре	-14103
агов	-14104
аким	-14105
бким	-14106
вели	-14107
гают	-14108
гейі	-14109
глаж	-14110
здал	-14111
зким	-14112
иода	-14113
кате	-14114
лажд	-14115
лажн	-14116
лицы	-14117
лича	-14118
лиян	-14119
лияя	-14120
птік	-14121
ремя	-14122
рену	-14123
хлаж	-14124
эвап	-14125
ұмыс	-14126
armer	-14127
mosph	-14128
вазив	-14129
говре	-14130
горах	-14131
еңгей	-14132
ислор	-14133
лияют	-14134
луата	-14135
нится	-14136
осить	-14137
рогов	-14138
сінді	-14139
ттыры	-14140
упают	-14141
учают	-14142
ыстре	-14143
ыстро	-14144
юттік	-14145
үйрен	-14146
▁Nort	-14147
▁salt	-14148
▁Адап	-14149
▁адап	-14150
▁бесп	-14151
▁енгі	-14152
▁смыс	-14153
▁эвап	-14154
flects	-14155
perpar	-14156
аратты	-14157
атации	-14158
атацию	-14159
ветрен	-14160
ерісін	-14161
ируемы	-14162
личать	-14163
личающ	-14164
льтата	-14165
налымы	-14166
нитель	-14167
резент	-14168
резмер	-14169
ремени	-14170
ренеді	-14171
тропог	-14172
ходить	-14173
ымының	-14174
▁agric	-14175
▁colle	-14176
▁gover	-14177
▁невел	-14178
hemical	-14179
leaning	-14180
ountain	-14181
overfit	-14182
overned	-14183
parates	-14184
process	-14185
ractice	-14186
racture	-14187
rainage	-14188
ranspir	-14189
reasing	-14190
recipit	-14191
reeline	-14192
rements	-14193
ressure	-14194
ributed	-14195
ritical	-14196
stimate	-14197
taining	-14198
tations	-14199
торя	-14200
▁geo	-14201
▁rap	-14202
▁лин	-14203
▁сәй	-14204
▁сәт	-14205
▁сәу	-14206
▁Құр	-14207
ginal	-14208
pplic	-14209
pprop	-14210
rated	-14211
uplic	-14212
альпі	-14213
здағы	-14214
ионов	-14215
йымда	-14216
мейді	-14217
пырақ	-14218
тимиз	-14219
ыстры	-14220
▁Thes	-14221
▁buil	-14222
▁feed	-14223
▁fram	-14224
▁graz	-14225
▁head	-14226
▁qual	-14227
▁quan	-14228
▁valu	-14229
▁Алды	-14230
▁азот	-14231
▁глуб	-14232
▁исто	-14233
▁лине	-14234
▁логи	-14235
▁силь	-14236
▁эроз	-14237
▁қыст	-14238
alpine	-14239
alysis	-14240
ducing	-14241
ecause	-14242
eraliz	-14243
gnitud	-14244
inally	-14245
айылым	-14246
альпий	-14247
деляющ	-14248
енному	-14249
ивному	-14250
мандар	-14251
нылады	-14252
ований	-14253
рессии	-14254
ставля	-14255
ылымды	-14256
қтауға	-14257
▁categ	-14258
▁valid	-14259
▁valle	-14260
▁гипер	-14261
▁истин	-14262
▁котор	-14263
▁покры	-14264
▁снего	-14265
▁сонды	-14266
▁финал	-14267
▁эрози	-14268
diction	-14269
dictive	-14270
ffering	-14271
getated	-14272
graphic	-14273
ormaliz	-14274
pograph	-14275
terogen	-14276
tration	-14277
ultural	-14278
unction	-14279
untaino	-14280
untains	-14281
uration	-14282
urbance	-14283
urfaces	-14284
utility	-14285
vations	-14286
versari	-14287
ystemat	-14288
Дисперс	-14289
аваться	-14290
авление	-14291
авномер	-14292
аводков	-14293
аживающ	-14294
ажности	-14295
айдалан	-14296
айдалық	-14297
аланады	-14298
алидаци	-14299
cyc	-14300
ecy	-14301
hav	-14302
адь	-14303
дви	-14304
ужд	-14305
amag	-14306
apse	-14307
avor	-14308
ency	-14309
gnif	-14310
poxi	-14311
ноги	-14312
teced	-14313
адном	-14314
априм	-14315
уінен	-14316
▁unse	-14317
▁осно	-14318
▁утеч	-14319
udgets	-14320
verest	-14321
ассейн	-14322
асымал	-14323
гранич	-14324
климат	-14325
льтрак	-14326
эвапот	-14327
▁assem	-14328
▁наблю	-14329
lexible	-14330
pically	-14331
алпылау	-14332
алықтар	-14333
ального	-14334
альпийс	-14335
арактер	-14336
аралары	-14337
араметр	-14338
арбонат	-14339
аряется	-14340
асности	-14341
ассейна	-14342
атистич	-14343
аттарын	-14344
ашинное	-14345
ашылығы	-14346
ветству	-14347
вимость	-14348
влекающ	-14349
войство	-14350
гориаль	-14351
горитма	-14352
горитми	-14353
горитму	-14354
горитмы	-14355
граничи	-14356
гілерге	-14357
гілерді	-14358
гілерін	-14359
дельном	-14360
держива	-14361
драттық	-14362
дырауын	-14363
дірмелі	-14364
езность	-14365
ейлерде	-14366
ейімдел	-14367
екендеу	-14368
ектейді	-14369
елердің	-14370
ельного	-14371
ельност	-14372
еменных	-14373
енности	-14374
енсоров	-14375
ентного	-14376
еология	-14377
епенных	-14378
ералдар	-14379
еректер	-14380
ереобуч	-14381
ереңдік	-14382
еритель	-14383
ерности	-14384
ерность	-14385
ерхност	-14386
ечивающ	-14387
ешендер	-14388
женерии	-14389
женерия	-14390
женерлі	-14391
женному	-14392
жүйелер	-14393
запасов	-14394
зикалық	-14395
зически	-14396
значать	-14397
зования	-14398
ивающее	-14399
вые	-14400
ртқ	-14401
▁On	-14402
▁Ro	-14403
▁Из	-14404
▁іш	-14405
▁Өн	-14406
down	-14407
dros	-14408
oise	-14409
ooth	-14410
rigg	-14411
Вари	-14412
айтқ	-14413
далу	-14414
евые	-14415
заик	-14416
иоды	-14417
ндра	-14418
ораз	-14419
орек	-14420
плив	-14421
ркел	-14422
ские	-14423
тқыш	-14424
ускт	-14425
яйст	-14426
іриб	-14427
▁los	-14428
▁аңғ	-14429
▁меж	-14430
▁уху	-14431
fined	-14432
ganic	-14433
irrig	-14434
mmary	-14435
newal	-14436
oices	-14437
orpor	-14438
scape	-14439
stant	-14440
далуы	-14441
запас	-14442
зияны	-14443
зонты	-14444
истик	-14445
келуі	-14446
онкие	-14447
ороды	-14448
оряем	-14449
плины	-14450
разия	-14451
рбани	-14452
росла	-14453
усков	-14454
ясаты	-14455
індет	-14456
▁Phys	-14457
▁Warm	-14458
▁down	-14459
▁Вари	-14460
▁вари	-14461
▁кодт	-14462
▁әлем	-14463
drolog	-14464
entary	-14465
entler	-14466
fining	-14467
lerate	-14468
porary	-14469
rolled	-14470
ежейді	-14471
келеді	-14472
нейная	-14473
овская	-14474
режных	-14475
рондық	-14476
ронные	-14477
▁prior	-14478
▁quant	-14479
▁булан	-14480
▁выраж	-14481
▁дәреж	-14482
▁отраж	-14483
▁произ	-14484
balpine	-14485
newable	-14486
ивающие	-14487
ивающим	-14488
ивность	-14489
ивотный	-14490
играции	-14491
иденных	-14492
инейная	-14493
исимост	-14494
исперси	-14495
истемат	-14496
истичес	-14497
итается	-14498
ительны	-14499
самб	-14500
▁usu	-14501
▁даё	-14502
▁скр	-14503
abels	-14504
hogen	-14505
loods	-14506
ngine	-14507
ogene	-14508
pprox	-14509
Байес	-14510
аемых	-14511
артас	-14512
асета	-14513
аттал	-14514
елове	-14515
етуін	-14516
мекті	-14517
самбл	-14518
ского	-14519
стегі	-14520
ующую	-14521
імтал	-14522
▁mosa	-14523
▁абст	-14524
▁апри	-14525
▁скры	-14526
▁таңб	-14527
▁шуыл	-14528
ceptiv	-14529
elines	-14530
mposit	-14531
ported	-14532
stains	-14533
айынды	-14534
аларда	-14535
алатын	-14536
вообра	-14537
даемое	-14538
еловеч	-14539
еуекті	-14540
кеанов	-14541
лексов	-14542
нообра	-14543
озяйст	-14544
очники	-14545
спекті	-14546
станов	-14547
талған	-14548
ункции	-14549
ындары	-14550
ғыздал	-14551
ғысуын	-14552
▁domin	-14553
▁found	-14554
▁habit	-14555
▁posit	-14556
▁абсол	-14557
▁охран	-14558
▁сочет	-14559
▁тұтын	-14560
▁ықтим	-14561
abeling	-14562
looding	-14563
portion	-14564
proport	-14565
ynamics	-14566
алибров	-14567
данатын	-14568
енивают	-14569
ительст	-14570
итывать	-14571
ический	-14572
ищённые	-14573
казания	-14574
ключает	-14575
ключающ	-14576
кономер	-14577
коррект	-14578
ктерден	-14579
ктерист	-14580
ктность	-14581
ланысты	-14582
лексных	-14583
ленными	-14584
лерінде	-14585
лиматты	-14586
ложений	-14587
лучению	-14588
льность	-14589
льтатив	-14590
льтрафи	-14591
людение	-14592
менение	-14593
менения	-14594
менного	-14595
менттер	-14596
мерения	-14597
мещении	-14598
мизации	-14599
ьях	-14600
зраст	-14601
иперп	-14602
ксплу	-14603
остиг	-14604
сходы	-14605
істер	-14606
▁base	-14607
▁desc	-14608
▁Водо	-14609
▁коле	-14610
▁масш	-14611
▁мину	-14612
восход	-14613
елілік	-14614
ресная	-14615
сплуат	-14616
стости	-14617
требов	-14618
ысқара	-14619
▁creat	-14620
▁retur	-14621
▁больш	-14622
▁есепт	-14623
▁жүйел	-14624
▁колич	-14625
▁скори	-14626
▁скоро	-14627
▁солне	-14628
▁таңда	-14629
▁тұрмы	-14630
▁улучш	-14631
▁финан	-14632
Because	-14633
abitats	-14634
actions	-14635
fidence	-14636
ivities	-14637
unities	-14638
апример	-14639
мальные	-14640
мизация	-14641
микалық	-14642
миниров	-14643
мически	-14644
мылғысы	-14645
ницаемы	-14646
новения	-14647
новляем	-14648
ногокра	-14649
носится	-14650
ностный	-14651
ностных	-14652
обновля	-14653
обности	-14654
обность	-14655
образия	-14656
образов	-14657
обучени	-14658
обходим	-14659
обществ	-14660
оваться	-14661
овремен	-14662
одельді	-14663
одитель	-14664
одность	-14665
ожнения	-14666
ожности	-14667
ожность	-14668
озицией	-14669
озяйств	-14670
олодный	-14671
олықтық	-14672
онатные	-14673
онность	-14674
опостав	-14675
определ	-14676
особным	-14677
особных	-14678
особств	-14679
оступны	-14680
отнения	-14681
отность	-14682
очности	-14683
очность	-14684
оятност	-14685
падение	-14686
парамет	-14687
пасының	-14688
пичного	-14689
полняли	-14690
презент	-14691
претиру	-14692
пшылығы	-14693
ранстве	-14694
растыру	-14695
ратегии	-14696
ратегия	-14697
рациясы	-14698
ращение	-14699
Bey	-14700
egu	-14701
ext	-14702
лощ	-14703
ртү	-14704
ффу	-14705
щищ	-14706
ёпл	-14707
өпт	-14708
▁yi	-14709
azar	-14710
egul	-14711
play	-14712
rack	-14713
text	-14714
ефті	-14715
зило	-14716
зрач	-14717
инга	-14718
ищён	-14719
йкес	-14720
наче	-14721
отығ	-14722
очищ	-14723
стрэ	-14724
ффуз	-14725
ъёма	-14726
ёплы	-14727
▁Abo	-14728
▁pip	-14729
▁Отп	-14730
▁Усп	-14731
▁сығ	-14732
avior	-14733
ithms	-14734
place	-14735
жіриб	-14736
йкест	-14737
тпесе	-14738
тправ	-14739
ффект	-14740
ызмет	-14741
aramet	-14742
ашнями	-14743
збыточ	-14744
ракции	-14745
▁extra	-14746
▁promo	-14747
▁детал	-14748
▁подуш	-14749
▁подчё	-14750
enerate	-14751
атасета	-14752
еологии	-14753
еркәсіп	-14754
еңіздер	-14755
збейтін	-14756
лықтағы	-14757
пользов	-14758
ращения	-14759
редгори	-14760
ределит	-14761
ренетін	-14762
ретация	-14763
ретінде	-14764
рибелер	-14765
ризации	-14766
ризация	-14767
ритории	-14768
риторий	-14769
рически	-14770
рлардың	-14771
рмализа	-14772
роитель	-14773
рологии	-14774
рология	-14775
рошение	-14776
рощения	-14777
рсетеді	-14778
самблей	-14779
селения	-14780
сказани	-14781
сколько	-14782
словлен	-14783
солению	-14784
сперсия	-14785
спредел	-14786
ставлен	-14787
стардың	-14788
стейтін	-14789
ститель	-14790
стырады	-14791
стіктік	-14792
существ	-14793
тарлықт	-14794
тарында	-14795
тегінің	-14796
терация	-14797
терпрет	-14798
тивопол	-14799
embl	-14800
gins	-14801
helm	-14802
ildf	-14803
oint	-14804
ruth	-14805
semb	-14806
маса	-14807
онеч	-14808
отря	-14809
рунт	-14810
худш	-14811
asets	-14812
dules	-14813
ecial	-14814
embla	-14815
ields	-14816
ified	-14817
oncur	-14818
plied	-14819
арлау	-14820
атики	-14821
[...]
